{
  "version": "1.0",
  "truncation": null,
  "padding": null,
  "added_tokens": [
    {
      "id": 0,
      "content": "[PAD]",
      "single_word": false,
      "lstrip": false,
      "rstrip": false,
      "normalized": false,
      "special": true
    },
    {
      "id": 1,
      "content": "[UNK]",
      "single_word": false,
      "lstrip": false,
      "rstrip": false,
      "normalized": false,
      "special": true
    },
    {
      "id": 2,
      "content": "[CLS]",
      "single_word": false,
      "lstrip": false,
      "rstrip": false,
      "normalized": false,
      "special": true
    },
    {
      "id": 3,
      "content": "[SEP]",
      "single_word": false,
      "lstrip": false,
      "rstrip": false,
      "normalized": false,
      "special": true
    },
    {
      "id": 4,
      "content": "[MASK]",
      "single_word": false,
      "lstrip": false,
      "rstrip": false,
      "normalized": false,
      "special": true
    }
  ],
  "normalizer": {
    "type": "BertNormalizer",
    "clean_text": true,
    "handle_chinese_chars": true,
    "strip_accents": null,
    "lowercase": true
  },
  "pre_tokenizer": {
    "type": "BertPreTokenizer"
  },
  "post_processor": {
    "type": "TemplateProcessing",
    "single": [
      {
        "SpecialToken": {
          "id": "[CLS]",
          "type_id": 0
        }
      },
      {
        "Sequence": {
          "id": "A",
          "type_id": 0
        }
      },
      {
        "SpecialToken": {
          "id": "[SEP]",
          "type_id": 0
        }
      }
    ],
    "pair": [
      {
        "SpecialToken": {
          "id": "[CLS]",
          "type_id": 0
        }
      },
      {
        "Sequence": {
          "id": "A",
          "type_id": 0
        }
      },
      {
        "SpecialToken": {
          "id": "[SEP]",
          "type_id": 0
        }
      },
      {
        "Sequence": {
          "id": "B",
          "type_id": 1
        }
      },
      {
        "SpecialToken": {
          "id": "[SEP]",
          "type_id": 1
        }
      }
    ],
    "special_tokens": {
      "[CLS]": {
        "id": "[CLS]",
        "ids": [
          2
        ],
        "tokens": [
          "[CLS]"
        ]
      },
      "[SEP]": {
        "id": "[SEP]",
        "ids": [
          3
        ],
        "tokens": [
          "[SEP]"
        ]
      }
    }
  },
  "decoder": {
    "type": "WordPiece",
    "prefix": "##",
    "cleanup": true
  },
  "model": {
    "type": "WordPiece",
    "unk_token": "[UNK]",
    "continuing_subword_prefix": "##",
    "max_input_chars_per_word": 100,
    "vocab": {
      "[PAD]": 0,
      "[UNK]": 1,
      "[CLS]": 2,
      "[SEP]": 3,
      "[MASK]": 4,
      "!": 5,
      "\"": 6,
      "#": 7,
      "$": 8,
      "%": 9,
      "&": 10,
      "'": 11,
      "(": 12,
      ")": 13,
      "*": 14,
      "+": 15,
      ",": 16,
      "-": 17,
      ".": 18,
      "/": 19,
      "0": 20,
      "1": 21,
      "2": 22,
      "3": 23,
      "4": 24,
      "5": 25,
      "6": 26,
      "7": 27,
      "8": 28,
      "9": 29,
      ":": 30,
      ";": 31,
      "<": 32,
      "=": 33,
      ">": 34,
      "?": 35,
      "@": 36,
      "[": 37,
      "\\": 38,
      "]": 39,
      "^": 40,
      "_": 41,
      "`": 42,
      "a": 43,
      "b": 44,
      "c": 45,
      "d": 46,
      "e": 47,
      "f": 48,
      "g": 49,
      "h": 50,
      "i": 51,
      "j": 52,
      "k": 53,
      "l": 54,
      "m": 55,
      "n": 56,
      "o": 57,
      "p": 58,
      "q": 59,
      "r": 60,
      "s": 61,
      "t": 62,
      "u": 63,
      "v": 64,
      "w": 65,
      "x": 66,
      "y": 67,
      "z": 68,
      "{": 69,
      "|": 70,
      "}": 71,
      "~": 72,
      "¡": 73,
      "¢": 74,
      "£": 75,
      "¤": 76,
      "¥": 77,
      "¦": 78,
      "§": 79,
      "¨": 80,
      "©": 81,
      "ª": 82,
      "«": 83,
      "¬": 84,
      "®": 85,
      "¯": 86,
      "°": 87,
      "±": 88,
      "²": 89,
      "³": 90,
      "´": 91,
      "µ": 92,
      "¶": 93,
      "·": 94,
      "¸": 95,
      "¹": 96,
      "º": 97,
      "»": 98,
      "¼": 99,
      "½": 100,
      "¾": 101,
      "¿": 102,
      "×": 103,
      "ß": 104,
      "æ": 105,
      "ð": 106,
      "÷": 107,
      "ø": 108,
      "đ": 109,
      "ı": 110,
      "ł": 111,
      "œ": 112,
      "ƒ": 113,
      "ə": 114,
      "ɪ": 115,
      "ʶ": 116,
      "ʼ": 117,
      "ʾ": 118,
      "ʿ": 119,
      "ˆ": 120,
      "˙": 121,
      "˚": 122,
      "˜": 123,
      "˝": 124,
      "α": 125,
      "β": 126,
      "γ": 127,
      "δ": 128,
      "ε": 129,
      "ζ": 130,
      "η": 131,
      "θ": 132,
      "ι": 133,
      "κ": 134,
      "λ": 135,
      "μ": 136,
      "ν": 137,
      "ξ": 138,
      "ο": 139,
      "π": 140,
      "ρ": 141,
      "ς": 142,
      "σ": 143,
      "τ": 144,
      "υ": 145,
      "φ": 146,
      "χ": 147,
      "ψ": 148,
      "ω": 149,
      "а": 150,
      "б": 151,
      "в": 152,
      "г": 153,
      "д": 154,
      "е": 155,
      "ж": 156,
      "з": 157,
      "и": 158,
      "к": 159,
      "л": 160,
      "м": 161,
      "н": 162,
      "о": 163,
      "п": 164,
      "р": 165,
      "с": 166,
      "т": 167,
      "у": 168,
      "ф": 169,
      "х": 170,
      "ц": 171,
      "ч": 172,
      "ш": 173,
      "щ": 174,
      "ъ": 175,
      "ы": 176,
      "ь": 177,
      "э": 178,
      "ю": 179,
      "я": 180,
      "ђ": 181,
      "є": 182,
      "ѕ": 183,
      "і": 184,
      "҉": 185,
      "қ": 186,
      "ҳ": 187,
      "ա": 188,
      "ն": 189,
      "א": 190,
      "ב": 191,
      "ג": 192,
      "ד": 193,
      "ה": 194,
      "ו": 195,
      "ז": 196,
      "ח": 197,
      "ט": 198,
      "י": 199,
      "ך": 200,
      "כ": 201,
      "ל": 202,
      "ם": 203,
      "מ": 204,
      "ן": 205,
      "נ": 206,
      "ס": 207,
      "ע": 208,
      "ף": 209,
      "פ": 210,
      "ץ": 211,
      "צ": 212,
      "ק": 213,
      "ר": 214,
      "ש": 215,
      "ת": 216,
      "װ": 217,
      "״": 218,
      "،": 219,
      "؛": 220,
      "؟": 221,
      "ء": 222,
      "ا": 223,
      "ب": 224,
      "ة": 225,
      "ت": 226,
      "ث": 227,
      "ج": 228,
      "ح": 229,
      "خ": 230,
      "د": 231,
      "ذ": 232,
      "ر": 233,
      "ز": 234,
      "س": 235,
      "ش": 236,
      "ص": 237,
      "ض": 238,
      "ط": 239,
      "ظ": 240,
      "ع": 241,
      "غ": 242,
      "ـ": 243,
      "ف": 244,
      "ق": 245,
      "ك": 246,
      "ل": 247,
      "م": 248,
      "ن": 249,
      "ه": 250,
      "و": 251,
      "ى": 252,
      "ي": 253,
      "٠": 254,
      "١": 255,
      "٢": 256,
      "٣": 257,
      "٤": 258,
      "٥": 259,
      "٦": 260,
      "٧": 261,
      "٨": 262,
      "٩": 263,
      "٪": 264,
      "٫": 265,
      "٬": 266,
      "٭": 267,
      "ٱ": 268,
      "ٲ": 269,
      "ٳ": 270,
      "ٶ": 271,
      "ٹ": 272,
      "ٺ": 273,
      "پ": 274,
      "چ": 275,
      "ڈ": 276,
      "ڑ": 277,
      "ژ": 278,
      "ڛ": 279,
      "ڠ": 280,
      "ڤ": 281,
      "ڨ": 282,
      "ک": 283,
      "ڪ": 284,
      "ڬ": 285,
      "ڭ": 286,
      "گ": 287,
      "ڳ": 288,
      "ڵ": 289,
      "ڶ": 290,
      "ڷ": 291,
      "ڸ": 292,
      "ڹ": 293,
      "ں": 294,
      "ڼ": 295,
      "ڽ": 296,
      "ھ": 297,
      "ہ": 298,
      "ۃ": 299,
      "ۅ": 300,
      "ۆ": 301,
      "ۈ": 302,
      "ۉ": 303,
      "ۋ": 304,
      "ی": 305,
      "ێ": 306,
      "ۑ": 307,
      "ے": 308,
      "۔": 309,
      "ە": 310,
      "۞": 311,
      "۩": 312,
      "۰": 313,
      "۱": 314,
      "۲": 315,
      "۳": 316,
      "۴": 317,
      "۵": 318,
      "۶": 319,
      "۷": 320,
      "۸": 321,
      "۹": 322,
      "ܐ": 323,
      "ܔ": 324,
      "ܕ": 325,
      "ܘ": 326,
      "ܝ": 327,
      "ܠ": 328,
      "ܡ": 329,
      "ܢ": 330,
      "ܪ": 331,
      "ܬ": 332,
      "क": 333,
      "न": 334,
      "र": 335,
      "ल": 336,
      "स": 337,
      "ा": 338,
      "ि": 339,
      "ी": 340,
      "া": 341,
      "ஐ": 342,
      "ஜ": 343,
      "த": 344,
      "ி": 345,
      "ೂ": 346,
      "ೕ": 347,
      "ก": 348,
      "ค": 349,
      "ง": 350,
      "ช": 351,
      "ด": 352,
      "ต": 353,
      "ท": 354,
      "น": 355,
      "บ": 356,
      "ป": 357,
      "ม": 358,
      "ย": 359,
      "ร": 360,
      "ล": 361,
      "ว": 362,
      "ส": 363,
      "ห": 364,
      "อ": 365,
      "ะ": 366,
      "า": 367,
      "฿": 368,
      "เ": 369,
      "แ": 370,
      "โ": 371,
      "ไ": 372,
      "๑": 373,
      "༄": 374,
      "ღ": 375,
      "ჲ": 376,
      "჻": 377,
      "ᄀ": 378,
      "ᄂ": 379,
      "ᄃ": 380,
      "ᄅ": 381,
      "ᄆ": 382,
      "ᄇ": 383,
      "ᄉ": 384,
      "ᄋ": 385,
      "ᄌ": 386,
      "ᄎ": 387,
      "ᄐ": 388,
      "ᄒ": 389,
      "ᅡ": 390,
      "ᅢ": 391,
      "ᅥ": 392,
      "ᅦ": 393,
      "ᅧ": 394,
      "ᅩ": 395,
      "ᅮ": 396,
      "ᅳ": 397,
      "ᅵ": 398,
      "ᆨ": 399,
      "ᆫ": 400,
      "ᆯ": 401,
      "ᆷ": 402,
      "ᆼ": 403,
      "ᴍ": 404,
      "ᵜ": 405,
      "ᵤ": 406,
      "‑": 407,
      "–": 408,
      "—": 409,
      "‗": 410,
      "‘": 411,
      "’": 412,
      "‚": 413,
      "“": 414,
      "”": 415,
      "„": 416,
      "†": 417,
      "‡": 418,
      "•": 419,
      "…": 420,
      "‰": 421,
      "′": 422,
      "″": 423,
      "‹": 424,
      "›": 425,
      "₩": 426,
      "₪": 427,
      "₫": 428,
      "€": 429,
      "₹": 430,
      "℃": 431,
      "ℓ": 432,
      "™": 433,
      "←": 434,
      "↑": 435,
      "→": 436,
      "↓": 437,
      "↙": 438,
      "↵": 439,
      "−": 440,
      "∙": 441,
      "√": 442,
      "∫": 443,
      "≈": 444,
      "≡": 445,
      "⊰": 446,
      "⊱": 447,
      "⋘": 448,
      "⌐": 449,
      "│": 450,
      "┈": 451,
      "═": 452,
      "╔": 453,
      "╗": 454,
      "╠": 455,
      "╣": 456,
      "▂": 457,
      "▆": 458,
      "█": 459,
      "▌": 460,
      "░": 461,
      "▒": 462,
      "▓": 463,
      "■": 464,
      "▣": 465,
      "▪": 466,
      "▫": 467,
      "▬": 468,
      "▲": 469,
      "▶": 470,
      "▸": 471,
      "►": 472,
      "▼": 473,
      "◀": 474,
      "◂": 475,
      "◄": 476,
      "◆": 477,
      "◊": 478,
      "○": 479,
      "●": 480,
      "◕": 481,
      "◢": 482,
      "◣": 483,
      "◦": 484,
      "☀": 485,
      "★": 486,
      "☆": 487,
      "☎": 488,
      "☏": 489,
      "☜": 490,
      "☞": 491,
      "☰": 492,
      "☺": 493,
      "☻": 494,
      "☼": 495,
      "♔": 496,
      "♕": 497,
      "♛": 498,
      "♠": 499,
      "♡": 500,
      "♣": 501,
      "♥": 502,
      "♦": 503,
      "♨": 504,
      "♩": 505,
      "♪": 506,
      "♫": 507,
      "♬": 508,
      "♭": 509,
      "⚐": 510,
      "⚑": 511,
      "⚛": 512,
      "⚜": 513,
      "⚠": 514,
      "⚡": 515,
      "⚫": 516,
      "⚽": 517,
      "✅": 518,
      "✋": 519,
      "✌": 520,
      "✍": 521,
      "✎": 522,
      "✒": 523,
      "✓": 524,
      "✔": 525,
      "✦": 526,
      "✨": 527,
      "✲": 528,
      "✽": 529,
      "✿": 530,
      "❀": 531,
      "❊": 532,
      "❌": 533,
      "❖": 534,
      "❝": 535,
      "❤": 536,
      "❥": 537,
      "➖": 538,
      "➞": 539,
      "⟰": 540,
      "⠀": 541,
      "⦁": 542,
      "⬅": 543,
      "⭐": 544,
      "ⴰ": 545,
      "ⴳ": 546,
      "ⴷ": 547,
      "ⴼ": 548,
      "ⴽ": 549,
      "ⵉ": 550,
      "ⵍ": 551,
      "ⵎ": 552,
      "ⵏ": 553,
      "ⵓ": 554,
      "ⵔ": 555,
      "ⵖ": 556,
      "ⵙ": 557,
      "ⵜ": 558,
      "ⵡ": 559,
      "ⵣ": 560,
      "、": 561,
      "。": 562,
      "《": 563,
      "》": 564,
      "「": 565,
      "」": 566,
      "【": 567,
      "】": 568,
      "あ": 569,
      "い": 570,
      "う": 571,
      "お": 572,
      "か": 573,
      "き": 574,
      "く": 575,
      "け": 576,
      "こ": 577,
      "さ": 578,
      "し": 579,
      "す": 580,
      "そ": 581,
      "た": 582,
      "ち": 583,
      "っ": 584,
      "つ": 585,
      "て": 586,
      "と": 587,
      "な": 588,
      "に": 589,
      "の": 590,
      "は": 591,
      "ま": 592,
      "み": 593,
      "め": 594,
      "も": 595,
      "や": 596,
      "よ": 597,
      "ら": 598,
      "り": 599,
      "る": 600,
      "れ": 601,
      "を": 602,
      "ん": 603,
      "ア": 604,
      "ィ": 605,
      "イ": 606,
      "ウ": 607,
      "ェ": 608,
      "エ": 609,
      "オ": 610,
      "カ": 611,
      "キ": 612,
      "ク": 613,
      "ケ": 614,
      "コ": 615,
      "サ": 616,
      "シ": 617,
      "ス": 618,
      "ソ": 619,
      "タ": 620,
      "チ": 621,
      "ッ": 622,
      "ツ": 623,
      "テ": 624,
      "ト": 625,
      "ナ": 626,
      "ニ": 627,
      "ハ": 628,
      "ヒ": 629,
      "フ": 630,
      "ヘ": 631,
      "ホ": 632,
      "マ": 633,
      "ミ": 634,
      "ム": 635,
      "メ": 636,
      "ャ": 637,
      "ラ": 638,
      "リ": 639,
      "ル": 640,
      "レ": 641,
      "ロ": 642,
      "ン": 643,
      "・": 644,
      "ー": 645,
      "ㅤ": 646,
      "一": 647,
      "万": 648,
      "三": 649,
      "上": 650,
      "下": 651,
      "不": 652,
      "世": 653,
      "业": 654,
      "个": 655,
      "中": 656,
      "为": 657,
      "主": 658,
      "乂": 659,
      "乐": 660,
      "九": 661,
      "了": 662,
      "事": 663,
      "二": 664,
      "亚": 665,
      "京": 666,
      "人": 667,
      "代": 668,
      "以": 669,
      "优": 670,
      "会": 671,
      "体": 672,
      "作": 673,
      "保": 674,
      "信": 675,
      "元": 676,
      "入": 677,
      "全": 678,
      "公": 679,
      "内": 680,
      "册": 681,
      "冠": 682,
      "出": 683,
      "分": 684,
      "利": 685,
      "到": 686,
      "前": 687,
      "力": 688,
      "加": 689,
      "动": 690,
      "化": 691,
      "区": 692,
      "十": 693,
      "华": 694,
      "博": 695,
      "发": 696,
      "取": 697,
      "可": 698,
      "台": 699,
      "司": 700,
      "合": 701,
      "名": 702,
      "和": 703,
      "品": 704,
      "国": 705,
      "在": 706,
      "地": 707,
      "场": 708,
      "址": 709,
      "城": 710,
      "备": 711,
      "多": 712,
      "大": 713,
      "天": 714,
      "太": 715,
      "女": 716,
      "好": 717,
      "娱": 718,
      "子": 719,
      "学": 720,
      "安": 721,
      "官": 722,
      "定": 723,
      "宝": 724,
      "家": 725,
      "宾": 726,
      "富": 727,
      "小": 728,
      "山": 729,
      "川": 730,
      "州": 731,
      "工": 732,
      "市": 733,
      "平": 734,
      "年": 735,
      "开": 736,
      "彩": 737,
      "律": 738,
      "得": 739,
      "心": 740,
      "情": 741,
      "成": 742,
      "我": 743,
      "户": 744,
      "所": 745,
      "手": 746,
      "技": 747,
      "投": 748,
      "文": 749,
      "斯": 750,
      "新": 751,
      "方": 752,
      "日": 753,
      "时": 754,
      "明": 755,
      "星": 756,
      "是": 757,
      "時": 758,
      "最": 759,
      "月": 760,
      "有": 761,
      "本": 762,
      "机": 763,
      "来": 764,
      "比": 765,
      "水": 766,
      "永": 767,
      "沙": 768,
      "法": 769,
      "注": 770,
      "洲": 771,
      "海": 772,
      "澳": 773,
      "牌": 774,
      "物": 775,
      "玩": 776,
      "现": 777,
      "球": 778,
      "理": 779,
      "生": 780,
      "用": 781,
      "田": 782,
      "电": 783,
      "百": 784,
      "的": 785,
      "皇": 786,
      "盈": 787,
      "真": 788,
      "石": 789,
      "社": 790,
      "神": 791,
      "福": 792,
      "立": 793,
      "站": 794,
      "级": 795,
      "线": 796,
      "络": 797,
      "网": 798,
      "美": 799,
      "者": 800,
      "育": 801,
      "胜": 802,
      "能": 803,
      "自": 804,
      "菲": 805,
      "行": 806,
      "西": 807,
      "要": 808,
      "誉": 809,
      "語": 810,
      "评": 811,
      "豪": 812,
      "赌": 813,
      "道": 814,
      "部": 815,
      "都": 816,
      "野": 817,
      "金": 818,
      "钱": 819,
      "门": 820,
      "阳": 821,
      "际": 822,
      "香": 823,
      "马": 824,
      "高": 825,
      "龙": 826,
      "ﭑ": 827,
      "ﭬ": 828,
      "ﮐ": 829,
      "ﮔ": 830,
      "ﮧ": 831,
      "ﮪ": 832,
      "ﮯ": 833,
      "ﯛ": 834,
      "ﯾ": 835,
      "ﯿ": 836,
      "﴾": 837,
      "﴿": 838,
      "ﷲ": 839,
      "ﷺ": 840,
      "ﹰ": 841,
      "ﺀ": 842,
      "ﺂ": 843,
      "ﺃ": 844,
      "ﺄ": 845,
      "ﺆ": 846,
      "ﺇ": 847,
      "ﺋ": 848,
      "ﺌ": 849,
      "ﺍ": 850,
      "ﺎ": 851,
      "ﺏ": 852,
      "ﺐ": 853,
      "ﺑ": 854,
      "ﺒ": 855,
      "ﺓ": 856,
      "ﺔ": 857,
      "ﺕ": 858,
      "ﺖ": 859,
      "ﺗ": 860,
      "ﺘ": 861,
      "ﺛ": 862,
      "ﺜ": 863,
      "ﺝ": 864,
      "ﺟ": 865,
      "ﺠ": 866,
      "ﺣ": 867,
      "ﺤ": 868,
      "ﺧ": 869,
      "ﺨ": 870,
      "ﺩ": 871,
      "ﺪ": 872,
      "ﺫ": 873,
      "ﺬ": 874,
      "ﺭ": 875,
      "ﺮ": 876,
      "ﺯ": 877,
      "ﺰ": 878,
      "ﺱ": 879,
      "ﺲ": 880,
      "ﺳ": 881,
      "ﺴ": 882,
      "ﺷ": 883,
      "ﺸ": 884,
      "ﺹ": 885,
      "ﺺ": 886,
      "ﺻ": 887,
      "ﺼ": 888,
      "ﺽ": 889,
      "ﺿ": 890,
      "ﻀ": 891,
      "ﻁ": 892,
      "ﻃ": 893,
      "ﻄ": 894,
      "ﻈ": 895,
      "ﻉ": 896,
      "ﻊ": 897,
      "ﻋ": 898,
      "ﻌ": 899,
      "ﻏ": 900,
      "ﻐ": 901,
      "ﻒ": 902,
      "ﻓ": 903,
      "ﻔ": 904,
      "ﻕ": 905,
      "ﻖ": 906,
      "ﻗ": 907,
      "ﻘ": 908,
      "ﻙ": 909,
      "ﻚ": 910,
      "ﻛ": 911,
      "ﻜ": 912,
      "ﻝ": 913,
      "ﻞ": 914,
      "ﻟ": 915,
      "ﻠ": 916,
      "ﻡ": 917,
      "ﻢ": 918,
      "ﻣ": 919,
      "ﻤ": 920,
      "ﻥ": 921,
      "ﻦ": 922,
      "ﻧ": 923,
      "ﻨ": 924,
      "ﻩ": 925,
      "ﻪ": 926,
      "ﻫ": 927,
      "ﻬ": 928,
      "ﻭ": 929,
      "ﻮ": 930,
      "ﻰ": 931,
      "ﻱ": 932,
      "ﻲ": 933,
      "ﻳ": 934,
      "ﻴ": 935,
      "ﻵ": 936,
      "ﻷ": 937,
      "ﻸ": 938,
      "ﻹ": 939,
      "ﻻ": 940,
      "ﻼ": 941,
      "！": 942,
      "（": 943,
      "）": 944,
      "，": 945,
      "：": 946,
      "＠": 947,
      "￼": 948,
      "🇦": 949,
      "🇧": 950,
      "🇪": 951,
      "🇭": 952,
      "🇮": 953,
      "🇲": 954,
      "🇴": 955,
      "🇶": 956,
      "🇸": 957,
      "🇾": 958,
      "🌟": 959,
      "🌷": 960,
      "🌸": 961,
      "🌹": 962,
      "🌻": 963,
      "🍃": 964,
      "🏻": 965,
      "🏼": 966,
      "👇": 967,
      "👈": 968,
      "👌": 969,
      "👍": 970,
      "👏": 971,
      "💐": 972,
      "💔": 973,
      "💕": 974,
      "💖": 975,
      "💗": 976,
      "💙": 977,
      "💚": 978,
      "💜": 979,
      "💥": 980,
      "💫": 981,
      "💯": 982,
      "📌": 983,
      "📱": 984,
      "🔥": 985,
      "🔴": 986,
      "🔹": 987,
      "🕔": 988,
      "😀": 989,
      "😂": 990,
      "😄": 991,
      "😅": 992,
      "😉": 993,
      "😊": 994,
      "😍": 995,
      "😎": 996,
      "😘": 997,
      "😭": 998,
      "😱": 999,
      "🙁": 1000,
      "🙂": 1001,
      "🙏": 1002,
      "🤣": 1003,
      "🤩": 1004,
      "##س": 1005,
      "##ا": 1006,
      "##ح": 1007,
      "##ل": 1008,
      "##و": 1009,
      "##م": 1010,
      "##ض": 1011,
      "##ة": 1012,
      "##ت": 1013,
      "##ك": 1014,
      "##ر": 1015,
      "##ي": 1016,
      "##ن": 1017,
      "##ع": 1018,
      "##ب": 1019,
      "##ف": 1020,
      "##ق": 1021,
      "##ط": 1022,
      "##ه": 1023,
      "##5": 1024,
      "##ء": 1025,
      "##۰": 1026,
      "##ص": 1027,
      "##غ": 1028,
      "##ы": 1029,
      "##с": 1030,
      "##а": 1031,
      "##д": 1032,
      "##к": 1033,
      "##0": 1034,
      "##3": 1035,
      "##1": 1036,
      "##4": 1037,
      "##8": 1038,
      "##9": 1039,
      "##6": 1040,
      "##خ": 1041,
      "##ش": 1042,
      "##ز": 1043,
      "##ـ": 1044,
      "##د": 1045,
      "##ث": 1046,
      "##ى": 1047,
      "##e": 1048,
      "##i": 1049,
      "##m": 1050,
      "##n": 1051,
      "##g": 1052,
      "##u": 1053,
      "##ج": 1054,
      "##گ": 1055,
      "##a": 1056,
      "##l": 1057,
      "##y": 1058,
      "##t": 1059,
      "##o": 1060,
      "##h": 1061,
      "##ذ": 1062,
      "##v": 1063,
      "##r": 1064,
      "##s": 1065,
      "##2": 1066,
      "##7": 1067,
      "##k": 1068,
      "##f": 1069,
      "##ظ": 1070,
      "##b": 1071,
      "##ک": 1072,
      "##c": 1073,
      "##d": 1074,
      "##z": 1075,
      "##б": 1076,
      "##з": 1077,
      "##о": 1078,
      "##р": 1079,
      "##е": 1080,
      "##л": 1081,
      "##і": 1082,
      "##т": 1083,
      "##ﻟ": 1084,
      "##ﻔ": 1085,
      "##ﺴ": 1086,
      "##ﺎ": 1087,
      "##ﺩ": 1088,
      "##w": 1089,
      "##ﻻ": 1090,
      "##ﺗ": 1091,
      "##ﺠ": 1092,
      "##ﻩ": 1093,
      "##p": 1094,
      "##q": 1095,
      "##٣": 1096,
      "##٠": 1097,
      "##ь": 1098,
      "##♥": 1099,
      "##ܔ": 1100,
      "##и": 1101,
      "##я": 1102,
      "##α": 1103,
      "##τ": 1104,
      "##σ": 1105,
      "##η": 1106,
      "##μ": 1107,
      "##ο": 1108,
      "##ς": 1109,
      "##ی": 1110,
      "##в": 1111,
      "##ᅵ": 1112,
      "##ᄀ": 1113,
      "##ᅥ": 1114,
      "##ᄂ": 1115,
      "##ᅡ": 1116,
      "##x": 1117,
      "##j": 1118,
      "##💖": 1119,
      "##フ": 1120,
      "##ィ": 1121,
      "##リ": 1122,
      "##ร": 1123,
      "##ะ": 1124,
      "##เ": 1125,
      "##ท": 1126,
      "##ป": 1127,
      "##น": 1128,
      "##ı": 1129,
      "##™": 1130,
      "##°": 1131,
      "##ג": 1132,
      "##ﻤ": 1133,
      "##ﻮ": 1134,
      "##ﺳ": 1135,
      "##ﻴ": 1136,
      "##ﻘ": 1137,
      "##ﻲ": 1138,
      "##ﺧ": 1139,
      "##ﺿ": 1140,
      "##ﻌ": 1141,
      "##پ": 1142,
      "##٩": 1143,
      "##٧": 1144,
      "##ч": 1145,
      "##シ": 1146,
      "##ス": 1147,
      "##や": 1148,
      "##ト": 1149,
      "##レ": 1150,
      "##ー": 1151,
      "##を": 1152,
      "##し": 1153,
      "##て": 1154,
      "##ら": 1155,
      "##め": 1156,
      "##き": 1157,
      "##ク": 1158,
      "##イ": 1159,
      "##ڠ": 1160,
      "##п": 1161,
      "##х": 1162,
      "##چ": 1163,
      "##❤": 1164,
      "##コ": 1165,
      "##ヒ": 1166,
      "##た": 1167,
      "##テ": 1168,
      "##キ": 1169,
      "##ヘ": 1170,
      "##る": 1171,
      "##ە": 1172,
      "##と": 1173,
      "##っ": 1174,
      "##も": 1175,
      "##क": 1176,
      "##स": 1177,
      "##ल": 1178,
      "##ि": 1179,
      "##н": 1180,
      "##ﺤ": 1181,
      "##ﺭ": 1182,
      "##ﺓ": 1183,
      "##ﻋ": 1184,
      "##ﻷ": 1185,
      "##ᅮ": 1186,
      "##у": 1187,
      "##ھ": 1188,
      "##®": 1189,
      "##✋": 1190,
      "##ж": 1191,
      "##ф": 1192,
      "##は": 1193,
      "##り": 1194,
      "##ﻄ": 1195,
      "##⠀": 1196,
      "##ﺔ": 1197,
      "##ﺣ": 1198,
      "##٦": 1199,
      "##٢": 1200,
      "##ڪ": 1201,
      "##ﻭ": 1202,
      "##ﺟ": 1203,
      "##ﻪ": 1204,
      "##г": 1205,
      "##ﻐ": 1206,
      "##ﻠ": 1207,
      "##ﺐ": 1208,
      "##ア": 1209,
      "##ҳ": 1210,
      "##ッ": 1211,
      "##ש": 1212,
      "##✓": 1213,
      "##ﻣ": 1214,
      "##ﺘ": 1215,
      "##ﺮ": 1216,
      "##ﻛ": 1217,
      "##٥": 1218,
      "##٤": 1219,
      "##м": 1220,
      "##ﻳ": 1221,
      "##ﺕ": 1222,
      "##に": 1223,
      "##ロ": 1224,
      "##٨": 1225,
      "##ю": 1226,
      "##ﺒ": 1227,
      "##ﺻ": 1228,
      "##µ": 1229,
      "##¯": 1230,
      "##±": 1231,
      "##۱": 1232,
      "##۸": 1233,
      "##צ": 1234,
      "##ר": 1235,
      "##ת": 1236,
      "##ﺸ": 1237,
      "##ﻦ": 1238,
      "##★": 1239,
      "##¤": 1240,
      "##ٹ": 1241,
      "##£": 1242,
      "##ں": 1243,
      "##マ": 1244,
      "##☼": 1245,
      "##◄": 1246,
      "##۩": 1247,
      "##🇸": 1248,
      "##ﺑ": 1249,
      "##ﻗ": 1250,
      "##र": 1251,
      "##ェ": 1252,
      "##ᅩ": 1253,
      "##ᆨ": 1254,
      "##ᄆ": 1255,
      "##ᆯ": 1256,
      "##ᄌ": 1257,
      "##ᅦ": 1258,
      "##۳": 1259,
      "##۹": 1260,
      "##ٳ": 1261,
      "##ۋ": 1262,
      "##ン": 1263,
      "##￼": 1264,
      "##ڤ": 1265,
      "##ﻵ": 1266,
      "##の": 1267,
      "##よ": 1268,
      "##う": 1269,
      "##¦": 1270,
      "##♠": 1271,
      "##ν": 1272,
      "##ι": 1273,
      "##κ": 1274,
      "##ε": 1275,
      "##ᅳ": 1276,
      "##ᆼ": 1277,
      "##ᄉ": 1278,
      "##ᆷ": 1279,
      "##₪": 1280,
      "##١": 1281,
      "##ﻡ": 1282,
      "##ﺇ": 1283,
      "##ﻥ": 1284,
      "##ﺌ": 1285,
      "##ﻞ": 1286,
      "##い": 1287,
      "##ˆ": 1288,
      "##ﮧ": 1289,
      "##ﮪ": 1290,
      "##ﻹ": 1291,
      "##ⴰ": 1292,
      "##ﻨ": 1293,
      "##ﻬ": 1294,
      "##ﻢ": 1295,
      "##🌸": 1296,
      "##²": 1297,
      "##ﺨ": 1298,
      "##ﺼ": 1299,
      "##ﯿ": 1300,
      "##³": 1301,
      "##ﻓ": 1302,
      "##ц": 1303,
      "##×": 1304,
      "##💫": 1305,
      "##ᄋ": 1306,
      "##´": 1307,
      "##な": 1308,
      "##✔": 1309,
      "##タ": 1310,
      "##●": 1311,
      "##😄": 1312,
      "##ﻜ": 1313,
      "##ۆ": 1314,
      "##ﺰ": 1315,
      "##ð": 1316,
      "##ڽ": 1317,
      "##ו": 1318,
      "##מ": 1319,
      "##י": 1320,
      "##ם": 1321,
      "##ி": 1322,
      "##ﺪ": 1323,
      "##ย": 1324,
      "##ด": 1325,
      "##ม": 1326,
      "##ρ": 1327,
      "##ے": 1328,
      "##ω": 1329,
      "##ஐ": 1330,
      "##˚": 1331,
      "##¨": 1332,
      "##נ": 1333,
      "##ע": 1334,
      "##█": 1335,
      "##▓": 1336,
      "##▒": 1337,
      "##░": 1338,
      "##ﻁ": 1339,
      "##ה": 1340,
      "##こ": 1341,
      "##ۃ": 1342,
      "##ん": 1343,
      "##😘": 1344,
      "##🌹": 1345,
      "##🤣": 1346,
      "##😂": 1347,
      "##อ": 1348,
      "##ต": 1349,
      "##ว": 1350,
      "##า": 1351,
      "##ค": 1352,
      "##บ": 1353,
      "##ᄎ": 1354,
      "##ڈ": 1355,
      "##ﺲ": 1356,
      "##カ": 1357,
      "##ﺯ": 1358,
      "##ก": 1359,
      "##ﺍ": 1360,
      "##ﺏ": 1361,
      "##ง": 1362,
      "##ล": 1363,
      "##ﻃ": 1364,
      "##ہ": 1365,
      "##ш": 1366,
      "##れ": 1367,
      "##ﻝ": 1368,
      "##โ": 1369,
      "##ช": 1370,
      "##ﮯ": 1371,
      "##ܢ": 1372,
      "##ﻫ": 1373,
      "##エ": 1374,
      "##👇": 1375,
      "##ٱ": 1376,
      "##۞": 1377,
      "##๑": 1378,
      "##ﺖ": 1379,
      "##ﻉ": 1380,
      "##א": 1381,
      "##ק": 1382,
      "##ﹰ": 1383,
      "##ル": 1384,
      "##ミ": 1385,
      "##つ": 1386,
      "##ﻼ": 1387,
      "##ﻀ": 1388,
      "##ﻊ": 1389,
      "##−": 1390,
      "##ﺱ": 1391,
      "##¸": 1392,
      "##❝": 1393,
      "##ז": 1394,
      "##🏻": 1395,
      "##💔": 1396,
      "##ﻧ": 1397,
      "##θ": 1398,
      "##ø": 1399,
      "##۷": 1400,
      "##ᄇ": 1401,
      "##ᄅ": 1402,
      "##λ": 1403,
      "##ﺋ": 1404,
      "##ט": 1405,
      "##ژ": 1406,
      "##ﺄ": 1407,
      "##ﺬ": 1408,
      "##👍": 1409,
      "##€": 1410,
      "##¬": 1411,
      "##👌": 1412,
      "##😍": 1413,
      "##ラ": 1414,
      "##ª": 1415,
      "##º": 1416,
      "##ﻰ": 1417,
      "##щ": 1418,
      "##β": 1419,
      "##۴": 1420,
      "##۲": 1421,
      "##🔥": 1422,
      "##ส": 1423,
      "##ב": 1424,
      "##ח": 1425,
      "##ζ": 1426,
      "##ٺ": 1427,
      "##ﻒ": 1428,
      "##ל": 1429,
      "##ち": 1430,
      "##🇪": 1431,
      "##ᄐ": 1432,
      "##ᆫ": 1433,
      "##ﭬ": 1434,
      "##ℓ": 1435,
      "##ﻈ": 1436,
      "##ᅢ": 1437,
      "##ᅧ": 1438,
      "##ᄒ": 1439,
      "##❌": 1440,
      "##ڭ": 1441,
      "##φ": 1442,
      "##γ": 1443,
      "##ڬ": 1444,
      "##ム": 1445,
      "##サ": 1446,
      "##す": 1447,
      "##✌": 1448,
      "##ł": 1449,
      "##¾": 1450,
      "##¹": 1451,
      "##か": 1452,
      "##π": 1453,
      "##💕": 1454,
      "##ə": 1455,
      "##ⵏ": 1456,
      "##ⵎ": 1457,
      "##ס": 1458,
      "##♡": 1459,
      "##ڷ": 1460,
      "##ۈ": 1461,
      "##☺": 1462,
      "##¥": 1463,
      "##œ": 1464,
      "##ա": 1465,
      "##ն": 1466,
      "##ャ": 1467,
      "##◆": 1468,
      "##◣": 1469,
      "##υ": 1470,
      "##δ": 1471,
      "##✨": 1472,
      "##そ": 1473,
      "##み": 1474,
      "##お": 1475,
      "##チ": 1476,
      "##ד": 1477,
      "##ۑ": 1478,
      "##ﻕ": 1479,
      "##ケ": 1480,
      "##ま": 1481,
      "##э": 1482,
      "##ღ": 1483,
      "##🏼": 1484,
      "##ᄃ": 1485,
      "##ﯾ": 1486,
      "##ナ": 1487,
      "##ﺷ": 1488,
      "##ﺺ": 1489,
      "##オ": 1490,
      "##ٲ": 1491,
      "##❀": 1492,
      "##˝": 1493,
      "##¼": 1494,
      "##ן": 1495,
      "##ⵜ": 1496,
      "##ڵ": 1497,
      "##さ": 1498,
      "##あ": 1499,
      "##ڳ": 1500,
      "##ウ": 1501,
      "##ڨ": 1502,
      "##ܬ": 1503,
      "##ܕ": 1504,
      "##☞": 1505,
      "##đ": 1506,
      "##є": 1507,
      "##ƒ": 1508,
      "##æ": 1509,
      "##ٶ": 1510,
      "##ﻖ": 1511,
      "##ܪ": 1512,
      "##ܐ": 1513,
      "##ξ": 1514,
      "##🇧": 1515,
      "##🇭": 1516,
      "##כ": 1517,
      "##ハ": 1518,
      "##😀": 1519,
      "##ﻏ": 1520,
      "##ﻚ": 1521,
      "##ﺃ": 1522,
      "##ﻙ": 1523,
      "##ף": 1524,
      "##۶": 1525,
      "##ा": 1526,
      "##ܡ": 1527,
      "##ܠ": 1528,
      "##ܝ": 1529,
      "##メ": 1530,
      "##ニ": 1531,
      "##ी": 1532,
      "##ψ": 1533,
      "##け": 1534,
      "##ホ": 1535,
      "##ㅤ": 1536,
      "##😭": 1537,
      "##😱": 1538,
      "##÷": 1539,
      "##ڑ": 1540,
      "##ێ": 1541,
      "##💙": 1542,
      "##🇦": 1543,
      "##☆": 1544,
      "##ソ": 1545,
      "##ไ": 1546,
      "##ß": 1547,
      "##ъ": 1548,
      "##■": 1549,
      "##◦": 1550,
      "##ห": 1551,
      "##แ": 1552,
      "##く": 1553,
      "##ﻸ": 1554,
      "##ѕ": 1555,
      "##া": 1556,
      "##פ": 1557,
      "##😊": 1558,
      "##©": 1559,
      "##►": 1560,
      "##🔴": 1561,
      "##ﻱ": 1562,
      "##🌷": 1563,
      "##🍃": 1564,
      "##ﺀ": 1565,
      "##न": 1566,
      "##👈": 1567,
      "##💜": 1568,
      "##ﺝ": 1569,
      "##ܘ": 1570,
      "##ⵙ": 1571,
      "##ⵍ": 1572,
      "##ⴷ": 1573,
      "##👏": 1574,
      "##χ": 1575,
      "##۵": 1576,
      "##ڼ": 1577,
      "##ツ": 1578,
      "##❥": 1579,
      "##ﺹ": 1580,
      "##⬅": 1581,
      "##⭐": 1582,
      "##▆": 1583,
      "##▂": 1584,
      "##▶": 1585,
      "##ﺜ": 1586,
      "##💐": 1587,
      "##🌻": 1588,
      "##🇲": 1589,
      "##ʿ": 1590,
      "##💚": 1591,
      "##ﮔ": 1592,
      "##ɪ": 1593,
      "##қ": 1594,
      "##ﷺ": 1595,
      "##℃": 1596,
      "##ʼ": 1597,
      "##¢": 1598,
      "##ﭑ": 1599,
      "##♩": 1600,
      "##ﯛ": 1601,
      "##ﺫ": 1602,
      "##│": 1603,
      "##ﺆ": 1604,
      "##ђ": 1605,
      "##🇾": 1606,
      "##½": 1607,
      "##ⵔ": 1608,
      "##☜": 1609,
      "##🙂": 1610,
      "##ۉ": 1611,
      "##ﺽ": 1612,
      "##◊": 1613,
      "##→": 1614,
      "##ﺂ": 1615,
      "##😅": 1616,
      "##ஜ": 1617,
      "##ڛ": 1618,
      "##ڹ": 1619,
      "##🌟": 1620,
      "##˜": 1621,
      "##த": 1622,
      "##↑": 1623,
      "##҉": 1624,
      "##✅": 1625,
      "##₩": 1626,
      "##💗": 1627,
      "##ﮐ": 1628,
      "##♪": 1629,
      "##♨": 1630,
      "##┈": 1631,
      "##ץ": 1632,
      "##♫": 1633,
      "##🙏": 1634,
      "##💯": 1635,
      "##ﺛ": 1636,
      "##▌": 1637,
      "##○": 1638,
      "##←": 1639,
      "##ⵓ": 1640,
      "##🤩": 1641,
      "##😉": 1642,
      "##😎": 1643,
      "##ⵖ": 1644,
      "##♛": 1645,
      "##ⵉ": 1646,
      "##▫": 1647,
      "##▬": 1648,
      "##🇴": 1649,
      "##🇶": 1650,
      "##ڶ": 1651,
      "##ۅ": 1652,
      "##📱": 1653,
      "##↓": 1654,
      "##❊": 1655,
      "##✿": 1656,
      "##♭": 1657,
      "##▲": 1658,
      "##∫": 1659,
      "##▪": 1660,
      "##♣": 1661,
      "##≈": 1662,
      "##⚫": 1663,
      "##♔": 1664,
      "##╔": 1665,
      "##☻": 1666,
      "##♦": 1667,
      "##❖": 1668,
      "##╗": 1669,
      "##═": 1670,
      "##♕": 1671,
      "##ೕ": 1672,
      "##☎": 1673,
      "##ﷲ": 1674,
      "##💥": 1675,
      "##ⵣ": 1676,
      "##ᴍ": 1677,
      "##ڸ": 1678,
      "##✍": 1679,
      "##🇮": 1680,
      "##◀": 1681,
      "##ך": 1682,
      "##⚡": 1683,
      "##≡": 1684,
      "##√": 1685,
      "##ೂ": 1686,
      "##⚽": 1687,
      "##ⴼ": 1688,
      "##🙁": 1689,
      "##ⴳ": 1690,
      "##◕": 1691,
      "##☀": 1692,
      "##∙": 1693,
      "##↙": 1694,
      "##✦": 1695,
      "##ⵡ": 1696,
      "##🔹": 1697,
      "##✲": 1698,
      "##ʾ": 1699,
      "##⚠": 1700,
      "##╠": 1701,
      "##╣": 1702,
      "##▣": 1703,
      "##✒": 1704,
      "##◢": 1705,
      "##ᵤ": 1706,
      "##♬": 1707,
      "##ⴽ": 1708,
      "##📌": 1709,
      "##➖": 1710,
      "##✎": 1711,
      "##☰": 1712,
      "##฿": 1713,
      "##▼": 1714,
      "##ʶ": 1715,
      "ال": 1716,
      "##ال": 1717,
      "##ية": 1718,
      "##ات": 1719,
      "الم": 1720,
      "##ان": 1721,
      "##ار": 1722,
      "الا": 1723,
      "##ين": 1724,
      "في": 1725,
      "من": 1726,
      "##ام": 1727,
      "وال": 1728,
      "##ول": 1729,
      "##ير": 1730,
      "##ها": 1731,
      "ان": 1732,
      "##ون": 1733,
      "الع": 1734,
      "##را": 1735,
      "عل": 1736,
      "##ري": 1737,
      "الت": 1738,
      "##اي": 1739,
      "##اب": 1740,
      "##ما": 1741,
      "##ست": 1742,
      "##اد": 1743,
      "##ور": 1744,
      "##اء": 1745,
      "لل": 1746,
      "على": 1747,
      "##لي": 1748,
      "##دي": 1749,
      "##نا": 1750,
      "##وا": 1751,
      "##بي": 1752,
      "الس": 1753,
      "##لا": 1754,
      "الح": 1755,
      "##يا": 1756,
      "بال": 1757,
      "##وم": 1758,
      "##هم": 1759,
      "عن": 1760,
      "الق": 1761,
      "##يل": 1762,
      "الش": 1763,
      "الج": 1764,
      "##مل": 1765,
      "##ــ": 1766,
      "الن": 1767,
      "الل": 1768,
      "##دة": 1769,
      "الب": 1770,
      "##اع": 1771,
      "الد": 1772,
      "##اف": 1773,
      "الى": 1774,
      "##ذا": 1775,
      "مع": 1776,
      "الف": 1777,
      "##رب": 1778,
      "##رو": 1779,
      "##رك": 1780,
      "##لك": 1781,
      "##يم": 1782,
      "لا": 1783,
      "الك": 1784,
      "##لم": 1785,
      "##يد": 1786,
      "وا": 1787,
      "##وق": 1788,
      "##سم": 1789,
      "##بر": 1790,
      "الخ": 1791,
      "##عة": 1792,
      "او": 1793,
      "##عد": 1794,
      "##قة": 1795,
      "الص": 1796,
      "##رة": 1797,
      "##يه": 1798,
      "##من": 1799,
      "##ود": 1800,
      "##يس": 1801,
      "بن": 1802,
      "وت": 1803,
      "##قد": 1804,
      "##يف": 1805,
      "##عل": 1806,
      "اخ": 1807,
      "الله": 1808,
      "ما": 1809,
      "20": 1810,
      "##حم": 1811,
      "##تم": 1812,
      "اب": 1813,
      "##دى": 1814,
      "##بة": 1815,
      "##اس": 1816,
      "##وس": 1817,
      "##كن": 1818,
      "##يع": 1819,
      "##مة": 1820,
      "##رف": 1821,
      "##يت": 1822,
      "##سل": 1823,
      "##نت": 1824,
      "##حة": 1825,
      "الذ": 1826,
      "الان": 1827,
      "##دا": 1828,
      "##لة": 1829,
      "##كت": 1830,
      "ام": 1831,
      "##اص": 1832,
      "التي": 1833,
      "##حت": 1834,
      "اي": 1835,
      "##اني": 1836,
      "لم": 1837,
      "##رج": 1838,
      "201": 1839,
      "الط": 1840,
      "كان": 1841,
      "##كر": 1842,
      "##وف": 1843,
      "##كل": 1844,
      "##يات": 1845,
      "##بل": 1846,
      "تع": 1847,
      "##ارة": 1848,
      "##با": 1849,
      "##حد": 1850,
      "##ذه": 1851,
      "##وت": 1852,
      "اس": 1853,
      "##er": 1854,
      "##جم": 1855,
      "است": 1856,
      "##ني": 1857,
      "##اه": 1858,
      "##قي": 1859,
      "المت": 1860,
      "وم": 1861,
      "##جل": 1862,
      "الو": 1863,
      "الام": 1864,
      "##سي": 1865,
      "والم": 1866,
      "هذا": 1867,
      "##اض": 1868,
      "##جه": 1869,
      "##وب": 1870,
      "الث": 1871,
      "##يز": 1872,
      "##كم": 1873,
      "##قت": 1874,
      "الر": 1875,
      "##في": 1876,
      "##وع": 1877,
      "##الم": 1878,
      "وه": 1879,
      "##نة": 1880,
      "##دم": 1881,
      "كل": 1882,
      "منت": 1883,
      "##اج": 1884,
      "##وي": 1885,
      "##صر": 1886,
      "##حي": 1887,
      "##شر": 1888,
      "##بد": 1889,
      "##صل": 1890,
      "مت": 1891,
      "##بار": 1892,
      "##قل": 1893,
      "العين": 1894,
      "##حمد": 1895,
      "الي": 1896,
      "##لف": 1897,
      "##سب": 1898,
      "##يرة": 1899,
      "مش": 1900,
      "##كون": 1901,
      "##رض": 1902,
      "اع": 1903,
      "##ته": 1904,
      "بعد": 1905,
      "##عي": 1906,
      "##وج": 1907,
      "##لال": 1908,
      "قال": 1909,
      "##اري": 1910,
      "هذه": 1911,
      "##ارات": 1912,
      "والت": 1913,
      "بين": 1914,
      "##ورة": 1915,
      "الذي": 1916,
      "##راء": 1917,
      "##رن": 1918,
      "##قال": 1919,
      "##رت": 1920,
      "علي": 1921,
      "اف": 1922,
      "##سة": 1923,
      "##اح": 1924,
      "مط": 1925,
      "وس": 1926,
      "##ليز": 1927,
      "##وات": 1928,
      "##انية": 1929,
      "##رق": 1930,
      "الري": 1931,
      "##ادة": 1932,
      "تح": 1933,
      "##يب": 1934,
      "##فس": 1935,
      "##لب": 1936,
      "##هر": 1937,
      "مح": 1938,
      "##خص": 1939,
      "##وض": 1940,
      "##عم": 1941,
      "##ظر": 1942,
      "مس": 1943,
      "##اط": 1944,
      "##وك": 1945,
      "عليه": 1946,
      "اخر": 1947,
      "هو": 1948,
      "عمل": 1949,
      "##ــــ": 1950,
      "وب": 1951,
      "الاخ": 1952,
      "##خل": 1953,
      "الار": 1954,
      "##هد": 1955,
      "##كة": 1956,
      "##دين": 1957,
      "الاس": 1958,
      "##در": 1959,
      "##امة": 1960,
      "وان": 1961,
      "قسم": 1962,
      "يت": 1963,
      "##كان": 1964,
      "##ركة": 1965,
      "الز": 1966,
      "منتدى": 1967,
      "لت": 1968,
      "##ربية": 1969,
      "##اق": 1970,
      "##وقع": 1971,
      "المن": 1972,
      "##وز": 1973,
      "جم": 1974,
      "تم": 1975,
      "اك": 1976,
      "يع": 1977,
      "بم": 1978,
      "بع": 1979,
      "تق": 1980,
      "ذلك": 1981,
      "##ولة": 1982,
      "##ند": 1983,
      "له": 1984,
      "عم": 1985,
      "عند": 1986,
      "##الي": 1987,
      "الغ": 1988,
      "##طة": 1989,
      "##ديد": 1990,
      "##وى": 1991,
      "عبد": 1992,
      "##وية": 1993,
      "المع": 1994,
      "الاست": 1995,
      "ول": 1996,
      "وع": 1997,
      "##وري": 1998,
      "##الة": 1999,
      "بل": 2000,
      "المنت": 2001,
      "##وان": 2002,
      "##ثر": 2003,
      "المس": 2004,
      "اله": 2005,
      "المش": 2006,
      "تص": 2007,
      "##ليم": 2008,
      "وي": 2009,
      "##عية": 2010,
      "##كية": 2011,
      "##لام": 2012,
      "ولا": 2013,
      "##فر": 2014,
      "##نية": 2015,
      "##خت": 2016,
      "##از": 2017,
      "##عب": 2018,
      "##افة": 2019,
      "اد": 2020,
      "انه": 2021,
      "##ايل": 2022,
      "للم": 2023,
      "##يون": 2024,
      "يم": 2025,
      "##رح": 2026,
      "##ur": 2027,
      "##ريق": 2028,
      "بت": 2029,
      "##ضاء": 2030,
      "كما": 2031,
      "مست": 2032,
      "##ذلك": 2033,
      "##امج": 2034,
      "محمد": 2035,
      "##عا": 2036,
      "به": 2037,
      "##فت": 2038,
      "##at": 2039,
      "##جد": 2040,
      "مطار": 2041,
      "غير": 2042,
      "##بت": 2043,
      "تن": 2044,
      "##حدة": 2045,
      "##رار": 2046,
      "##ضل": 2047,
      "قد": 2048,
      "ري": 2049,
      "با": 2050,
      "##الية": 2051,
      "##طف": 2052,
      "##رد": 2053,
      "خلال": 2054,
      "اليوم": 2055,
      "اص": 2056,
      "تت": 2057,
      "الاول": 2058,
      "##ثل": 2059,
      "اح": 2060,
      "فى": 2061,
      "البي": 2062,
      "##as": 2063,
      "اذا": 2064,
      "سي": 2065,
      "لان": 2066,
      "##on": 2067,
      "عملية": 2068,
      "##سلام": 2069,
      "المست": 2070,
      "##بع": 2071,
      "##ar": 2072,
      "##تى": 2073,
      "المح": 2074,
      "##اش": 2075,
      "يق": 2076,
      "##يث": 2077,
      "##تي": 2078,
      "اج": 2079,
      "##كس": 2080,
      "##زة": 2081,
      "ون": 2082,
      "العالم": 2083,
      "مج": 2084,
      "##رات": 2085,
      "قبل": 2086,
      "##فة": 2087,
      "##قط": 2088,
      "اش": 2089,
      "التع": 2090,
      "عام": 2091,
      "يوم": 2092,
      "النظر": 2093,
      "##راف": 2094,
      "##تها": 2095,
      "##قات": 2096,
      "مد": 2097,
      "فان": 2098,
      "لي": 2099,
      "##بن": 2100,
      "##00": 2101,
      "العام": 2102,
      "ومن": 2103,
      "الال": 2104,
      "هي": 2105,
      "##وال": 2106,
      "##رم": 2107,
      "كت": 2108,
      "ثم": 2109,
      "##صال": 2110,
      "ات": 2111,
      "##فع": 2112,
      "وق": 2113,
      "##كي": 2114,
      "##ادي": 2115,
      "بش": 2116,
      "تش": 2117,
      "##سية": 2118,
      "ابن": 2119,
      "##وة": 2120,
      "##اصة": 2121,
      "##بات": 2122,
      "حتى": 2123,
      "##واق": 2124,
      "بد": 2125,
      "##جلس": 2126,
      "##رون": 2127,
      "اق": 2128,
      "الليز": 2129,
      "##ger": 2130,
      "sur": 2131,
      "الاج": 2132,
      "بح": 2133,
      "##لى": 2134,
      "عد": 2135,
      "##يان": 2136,
      "##طل": 2137,
      "##اك": 2138,
      "بان": 2139,
      "##بية": 2140,
      "الجم": 2141,
      "##قا": 2142,
      "##تما": 2143,
      "##صف": 2144,
      "2018": 2145,
      "وز": 2146,
      "الرا": 2147,
      "وج": 2148,
      "##ابة": 2149,
      "##له": 2150,
      "للت": 2151,
      "وح": 2152,
      "##ثير": 2153,
      "الاد": 2154,
      "surger": 2155,
      "##لت": 2156,
      "يمكن": 2157,
      "انت": 2158,
      "##بح": 2159,
      "اض": 2160,
      "السع": 2161,
      "الدول": 2162,
      "surgery": 2163,
      "##يك": 2164,
      "بعض": 2165,
      "حيث": 2166,
      "##قدم": 2167,
      "وهو": 2168,
      "##ربي": 2169,
      "المج": 2170,
      "##ومة": 2171,
      "##وار": 2172,
      "##طن": 2173,
      "##به": 2174,
      "##ديث": 2175,
      "##امل": 2176,
      "وك": 2177,
      "##اخ": 2178,
      "بالم": 2179,
      "##اير": 2180,
      "اول": 2181,
      "العربية": 2182,
      "تس": 2183,
      "مص": 2184,
      "حل": 2185,
      "##ضا": 2186,
      "ست": 2187,
      "##دينة": 2188,
      "حول": 2189,
      "وف": 2190,
      "19": 2191,
      "هنا": 2192,
      "الاسلام": 2193,
      "##رى": 2194,
      "las": 2195,
      "##in": 2196,
      "ابو": 2197,
      "##حيح": 2198,
      "##سن": 2199,
      "المص": 2200,
      "تج": 2201,
      "##سات": 2202,
      "الشب": 2203,
      "##طفال": 2204,
      "النا": 2205,
      "مو": 2206,
      "##or": 2207,
      "##ورية": 2208,
      "##طر": 2209,
      "الض": 2210,
      "المو": 2211,
      "##مال": 2212,
      "يج": 2213,
      "##عر": 2214,
      "كانت": 2215,
      "##اريخ": 2216,
      "رييس": 2217,
      "المنتدى": 2218,
      "جميع": 2219,
      "##حن": 2220,
      "##عت": 2221,
      "##صول": 2222,
      "##اة": 2223,
      "##ريد": 2224,
      "##غير": 2225,
      "##هل": 2226,
      "احد": 2227,
      "بر": 2228,
      "فيه": 2229,
      "##ينا": 2230,
      "##سط": 2231,
      "##خد": 2232,
      "##زل": 2233,
      "##ديدة": 2234,
      "##ياه": 2235,
      "##جة": 2236,
      "##خدم": 2237,
      "##ايية": 2238,
      "وفي": 2239,
      "ين": 2240,
      "##شار": 2241,
      "السيا": 2242,
      "##بير": 2243,
      "##ايات": 2244,
      "العمل": 2245,
      "اث": 2246,
      "المتحدة": 2247,
      "شي": 2248,
      "##صة": 2249,
      "الات": 2250,
      "##an": 2251,
      "##ركز": 2252,
      "##راي": 2253,
      "الرييس": 2254,
      "##ac": 2255,
      "رس": 2256,
      "##سان": 2257,
      "##شف": 2258,
      "يكون": 2259,
      "يح": 2260,
      "مق": 2261,
      "##es": 2262,
      "##وعة": 2263,
      "فت": 2264,
      "شركة": 2265,
      "والع": 2266,
      "##لاح": 2267,
      "##انون": 2268,
      "وقد": 2269,
      "المد": 2270,
      "##en": 2271,
      "الرياض": 2272,
      "##غة": 2273,
      "##يو": 2274,
      "##لاث": 2275,
      "تط": 2276,
      "الموا": 2277,
      "##رين": 2278,
      "##وله": 2279,
      "##شي": 2280,
      "بها": 2281,
      "البح": 2282,
      "صلى": 2283,
      "##ودية": 2284,
      "##ارية": 2285,
      "##ديات": 2286,
      "##راق": 2287,
      "الانت": 2288,
      "اكثر": 2289,
      "##قى": 2290,
      "التح": 2291,
      "حد": 2292,
      "##عات": 2293,
      "##يلة": 2294,
      "افضل": 2295,
      "##ليل": 2296,
      "الشي": 2297,
      "##طقة": 2298,
      "وقال": 2299,
      "سن": 2300,
      "اعل": 2301,
      "##عف": 2302,
      "##ارج": 2303,
      "##ماء": 2304,
      "##رس": 2305,
      "ابي": 2306,
      "فيها": 2307,
      "##وه": 2308,
      "##يني": 2309,
      "##كات": 2310,
      "والا": 2311,
      "##انات": 2312,
      "##وضوع": 2313,
      "ولك": 2314,
      "##وح": 2315,
      "الاطفال": 2316,
      "##يش": 2317,
      "الليزك": 2318,
      "موقع": 2319,
      "##ودة": 2320,
      "##ويت": 2321,
      "مصر": 2322,
      "##رية": 2323,
      "الاش": 2324,
      "##ظام": 2325,
      "##ران": 2326,
      "المخ": 2327,
      "##واء": 2328,
      "10": 2329,
      "وكان": 2330,
      "بق": 2331,
      "##عيون": 2332,
      "فل": 2333,
      "ey": 2334,
      "##اعة": 2335,
      "##قم": 2336,
      "##al": 2337,
      "##ختلف": 2338,
      "##ريم": 2339,
      "##فل": 2340,
      "##كا": 2341,
      "##هما": 2342,
      "##زي": 2343,
      "##ديم": 2344,
      "وسلم": 2345,
      "نفس": 2346,
      "##وص": 2347,
      "##جيل": 2348,
      "لك": 2349,
      "##ومات": 2350,
      "الكت": 2351,
      "##واقع": 2352,
      "مجلس": 2353,
      "##راج": 2354,
      "الول": 2355,
      "لكن": 2356,
      "##ايق": 2357,
      "مثل": 2358,
      "للعيون": 2359,
      "جن": 2360,
      "##مان": 2361,
      "الماء": 2362,
      "##افظ": 2363,
      "ايضا": 2364,
      "##رام": 2365,
      "##ريف": 2366,
      "بالت": 2367,
      "##راض": 2368,
      "تحت": 2369,
      "##رير": 2370,
      "##ظيف": 2371,
      "اغ": 2372,
      "وش": 2373,
      "##خدام": 2374,
      "الحك": 2375,
      "بك": 2376,
      "ولكن": 2377,
      "11": 2378,
      "دول": 2379,
      "عدد": 2380,
      "##سين": 2381,
      "يد": 2382,
      "##ودي": 2383,
      "##ظم": 2384,
      "##رش": 2385,
      "##سبة": 2386,
      "نق": 2387,
      "يست": 2388,
      "الجن": 2389,
      "##وير": 2390,
      "الاعل": 2391,
      "##الى": 2392,
      "مم": 2393,
      "تد": 2394,
      "##ضع": 2395,
      "الخاصة": 2396,
      "##طي": 2397,
      "##حات": 2398,
      "##طية": 2399,
      "eye": 2400,
      "المق": 2401,
      "##فا": 2402,
      "العم": 2403,
      "##عار": 2404,
      "لع": 2405,
      "الرو": 2406,
      "لن": 2407,
      "شب": 2408,
      "اط": 2409,
      "المنا": 2410,
      "##عين": 2411,
      "##يج": 2412,
      "احمد": 2413,
      "الاح": 2414,
      "لو": 2415,
      "##جهزة": 2416,
      "##نى": 2417,
      "موا": 2418,
      "يش": 2419,
      "حق": 2420,
      "الوط": 2421,
      "##قتص": 2422,
      "والح": 2423,
      "##اخل": 2424,
      "الاف": 2425,
      "دون": 2426,
      "خط": 2427,
      "##لاق": 2428,
      "يتم": 2429,
      "السعودية": 2430,
      "ضعف": 2431,
      "الصح": 2432,
      "co": 2433,
      "البل": 2434,
      "يس": 2435,
      "المياه": 2436,
      "##ـــ": 2437,
      "المغ": 2438,
      "##ايي": 2439,
      "##اث": 2440,
      "##ارس": 2441,
      "##ايد": 2442,
      "لها": 2443,
      "##جمع": 2444,
      "اخت": 2445,
      "##بط": 2446,
      "##قيق": 2447,
      "تف": 2448,
      "اخبار": 2449,
      "##ضيع": 2450,
      "بط": 2451,
      "##حدث": 2452,
      "فقط": 2453,
      "##st": 2454,
      "##قاء": 2455,
      "اذ": 2456,
      "يا": 2457,
      "##اعد": 2458,
      "##خول": 2459,
      "اما": 2460,
      "لح": 2461,
      "نت": 2462,
      "##زيد": 2463,
      "سب": 2464,
      "##واب": 2465,
      "الاق": 2466,
      "الدين": 2467,
      "السل": 2468,
      "مكت": 2469,
      "##زم": 2470,
      "عبر": 2471,
      "##اما": 2472,
      "الصف": 2473,
      "ود": 2474,
      "القرن": 2475,
      "##راه": 2476,
      "العامة": 2477,
      "فه": 2478,
      "##فاع": 2479,
      "الاع": 2480,
      "الذين": 2481,
      "اعت": 2482,
      "صور": 2483,
      "التن": 2484,
      "##ساب": 2485,
      "##راة": 2486,
      "12": 2487,
      "##ركات": 2488,
      "##امعة": 2489,
      "##رفة": 2490,
      "##ضي": 2491,
      "##كتور": 2492,
      "##وث": 2493,
      "اخرى": 2494,
      "موس": 2495,
      "##ياة": 2496,
      "الشيخ": 2497,
      "بشكل": 2498,
      "حلقة": 2499,
      "تست": 2500,
      "##كري": 2501,
      "200": 2502,
      "##رنامج": 2503,
      "##ذكر": 2504,
      "##رع": 2505,
      "تكون": 2506,
      "مل": 2507,
      "##وسط": 2508,
      "سم": 2509,
      "##ايا": 2510,
      "انها": 2511,
      "##act": 2512,
      "##ينة": 2513,
      "بي": 2514,
      "ليس": 2515,
      "##جر": 2516,
      "عليها": 2517,
      "الموقع": 2518,
      "##ناء": 2519,
      "##لات": 2520,
      "سل": 2521,
      "وما": 2522,
      "14": 2523,
      "منه": 2524,
      "##اذ": 2525,
      "وهي": 2526,
      "##حو": 2527,
      "##وول": 2528,
      "##فق": 2529,
      "##ليات": 2530,
      "laser": 2531,
      "منها": 2532,
      "##الث": 2533,
      "##كترون": 2534,
      "##ايف": 2535,
      "هناك": 2536,
      "##يمة": 2537,
      "الناس": 2538,
      "##ادية": 2539,
      "##الات": 2540,
      "##ايب": 2541,
      "الشبكية": 2542,
      "##صد": 2543,
      "##روض": 2544,
      "##غي": 2545,
      "الجز": 2546,
      "##انا": 2547,
      "##مر": 2548,
      "ترك": 2549,
      "المه": 2550,
      "##بيض": 2551,
      "##سا": 2552,
      "##ed": 2553,
      "##بيع": 2554,
      "وخ": 2555,
      "##مار": 2556,
      "الاجتما": 2557,
      "##الب": 2558,
      "بالليز": 2559,
      "##لق": 2560,
      "##انيا": 2561,
      "##سبب": 2562,
      "##راد": 2563,
      "والن": 2564,
      "الوق": 2565,
      "العلم": 2566,
      "التج": 2567,
      "السي": 2568,
      "والس": 2569,
      "نوف": 2570,
      "الولايات": 2571,
      "عنه": 2572,
      "التق": 2573,
      "cat": 2574,
      "##سجيل": 2575,
      "##ic": 2576,
      "اهم": 2577,
      "##ادر": 2578,
      "##ارت": 2579,
      "##نين": 2580,
      "##ديو": 2581,
      "دي": 2582,
      "الرس": 2583,
      "الابيض": 2584,
      "البيضاء": 2585,
      "##روع": 2586,
      "##وما": 2587,
      "##اضي": 2588,
      "وص": 2589,
      "##دية": 2590,
      "الالكترون": 2591,
      "ولي": 2592,
      "##اهد": 2593,
      "شخص": 2594,
      "انف": 2595,
      "##ion": 2596,
      "منذ": 2597,
      "وذلك": 2598,
      "رم": 2599,
      "##نان": 2600,
      "##ضر": 2601,
      "##لاج": 2602,
      "تعالى": 2603,
      "##مت": 2604,
      "##am": 2605,
      "وقت": 2606,
      "##ملكة": 2607,
      "الاولى": 2608,
      "##جموعة": 2609,
      "اكت": 2610,
      "##عمل": 2611,
      "hd": 2612,
      "رسول": 2613,
      "##يام": 2614,
      "##تمع": 2615,
      "العل": 2616,
      "##is": 2617,
      "ملف": 2618,
      "واع": 2619,
      "##aract": 2620,
      "##يفة": 2621,
      "cataract": 2622,
      "##سلسل": 2623,
      "تصحيح": 2624,
      "تلك": 2625,
      "لبن": 2626,
      "قط": 2627,
      "جز": 2628,
      "##زب": 2629,
      "مخ": 2630,
      "##جز": 2631,
      "والش": 2632,
      "امام": 2633,
      "سنة": 2634,
      "15": 2635,
      "##وط": 2636,
      "##عيد": 2637,
      "اليه": 2638,
      "ذكر": 2639,
      "##ضة": 2640,
      "##it": 2641,
      "للح": 2642,
      "العيون": 2643,
      "العربي": 2644,
      "الثاني": 2645,
      "##ره": 2646,
      "التعليم": 2647,
      "بالليزر": 2648,
      "##راك": 2649,
      "##حراف": 2650,
      "تب": 2651,
      "##ظيم": 2652,
      "ملي": 2653,
      "التص": 2654,
      "اه": 2655,
      "الوز": 2656,
      "عب": 2657,
      "بس": 2658,
      "فقال": 2659,
      "##ريب": 2660,
      "##اقة": 2661,
      "##واصل": 2662,
      "راي": 2663,
      "##حاد": 2664,
      "##الت": 2665,
      "الاث": 2666,
      "مه": 2667,
      "##شرة": 2668,
      "زي": 2669,
      "##ابات": 2670,
      "##اول": 2671,
      "##em": 2672,
      "##كو": 2673,
      "سيا": 2674,
      "السلام": 2675,
      "##زيز": 2676,
      "فقد": 2677,
      "صح": 2678,
      "##نوات": 2679,
      "##ذي": 2680,
      "كم": 2681,
      "كتب": 2682,
      "والد": 2683,
      "الرج": 2684,
      "##يران": 2685,
      "##ik": 2686,
      "رقم": 2687,
      "##باح": 2688,
      "العد": 2689,
      "##غم": 2690,
      "##يرا": 2691,
      "وط": 2692,
      "##حميل": 2693,
      "بما": 2694,
      "##سام": 2695,
      "##يين": 2696,
      "##حاب": 2697,
      "احت": 2698,
      "صف": 2699,
      "##ad": 2700,
      "##ورات": 2701,
      "##غط": 2702,
      "الملك": 2703,
      "##ارك": 2704,
      "مال": 2705,
      "تخ": 2706,
      "##لية": 2707,
      "##اتي": 2708,
      "##قب": 2709,
      "##لمة": 2710,
      "##وريا": 2711,
      "نقل": 2712,
      "بيت": 2713,
      "##ميم": 2714,
      "القرنية": 2715,
      "ولم": 2716,
      "##ويل": 2717,
      "لما": 2718,
      "##روف": 2719,
      "واب": 2720,
      "كتاب": 2721,
      "باب": 2722,
      "انا": 2723,
      "عبدال": 2724,
      "الساب": 2725,
      "##مبر": 2726,
      "الموضوع": 2727,
      "مما": 2728,
      "مدينة": 2729,
      "الحكومة": 2730,
      "يقول": 2731,
      "الحل": 2732,
      "وعل": 2733,
      "##ايم": 2734,
      "عيون": 2735,
      "قوله": 2736,
      "##ــــــــ": 2737,
      "عالم": 2738,
      "والص": 2739,
      "اسب": 2740,
      "هل": 2741,
      "##مس": 2742,
      "##قه": 2743,
      "برامج": 2744,
      "اسم": 2745,
      "الحديث": 2746,
      "الثالث": 2747,
      "##اته": 2748,
      "حدث": 2749,
      "فلا": 2750,
      "مشار": 2751,
      "يجب": 2752,
      "اليم": 2753,
      "##طب": 2754,
      "الامري": 2755,
      "العاب": 2756,
      "داخل": 2757,
      "##وقف": 2758,
      "وجه": 2759,
      "##ضو": 2760,
      "##صار": 2761,
      "كيف": 2762,
      "##ro": 2763,
      "واست": 2764,
      "اجل": 2765,
      "بج": 2766,
      "الفل": 2767,
      "2017": 2768,
      "##واج": 2769,
      "اللغة": 2770,
      "##وش": 2771,
      "##ساء": 2772,
      "الانسان": 2773,
      "##ريقة": 2774,
      "##وبة": 2775,
      "برنامج": 2776,
      "طريق": 2777,
      "##ونة": 2778,
      "كنت": 2779,
      "##ورو": 2780,
      "##ديل": 2781,
      "13": 2782,
      "الامن": 2783,
      "وهذا": 2784,
      "##دمات": 2785,
      "نوفمبر": 2786,
      "##دمة": 2787,
      "##بيرة": 2788,
      "فيما": 2789,
      "الخط": 2790,
      "جدا": 2791,
      "##الف": 2792,
      "مك": 2793,
      "الاقتص": 2794,
      "##يق": 2795,
      "حم": 2796,
      "استخدام": 2797,
      "السنة": 2798,
      "##ضم": 2799,
      "جديدة": 2800,
      "##بيب": 2801,
      "##لاة": 2802,
      "لج": 2803,
      "##صي": 2804,
      "##قبل": 2805,
      "##ايج": 2806,
      "واحد": 2807,
      "مركز": 2808,
      "##فاق": 2809,
      "اهل": 2810,
      "البر": 2811,
      "##هور": 2812,
      "##رنت": 2813,
      "الفت": 2814,
      "والتي": 2815,
      "علم": 2816,
      "ثلاث": 2817,
      "##احة": 2818,
      "لهم": 2819,
      "##يزة": 2820,
      "##قيقة": 2821,
      "##منت": 2822,
      "تاريخ": 2823,
      "##انت": 2824,
      "##جات": 2825,
      "الاسب": 2826,
      "ار": 2827,
      "##ينية": 2828,
      "##حق": 2829,
      "واض": 2830,
      "##لاف": 2831,
      "##اية": 2832,
      "مختلف": 2833,
      "##انب": 2834,
      "##جي": 2835,
      "##شد": 2836,
      "الاحت": 2837,
      "عمر": 2838,
      "##قول": 2839,
      "lasik": 2840,
      "##ظهر": 2841,
      "##راييل": 2842,
      "الاز": 2843,
      "##است": 2844,
      "الشر": 2845,
      "ماي": 2846,
      "الاسلامية": 2847,
      "فال": 2848,
      "از": 2849,
      "للس": 2850,
      "لبنان": 2851,
      "الدولة": 2852,
      "##رياض": 2853,
      "حال": 2854,
      "الامر": 2855,
      "##بيق": 2856,
      "شهر": 2857,
      "##فظ": 2858,
      "البحث": 2859,
      "##ربة": 2860,
      "اضرار": 2861,
      "##صور": 2862,
      "النبي": 2863,
      "##ec": 2864,
      "التش": 2865,
      "ارت": 2866,
      "##نع": 2867,
      "18": 2868,
      "الوقت": 2869,
      "منتديات": 2870,
      "انفصال": 2871,
      "وغير": 2872,
      "كبير": 2873,
      "الدم": 2874,
      "##داد": 2875,
      "##حية": 2876,
      "##الد": 2877,
      "##صرية": 2878,
      "العق": 2879,
      "الاص": 2880,
      "##قايق": 2881,
      "عرض": 2882,
      "حديث": 2883,
      "والج": 2884,
      "دولار": 2885,
      "المعل": 2886,
      "بيان": 2887,
      "بالن": 2888,
      "رج": 2889,
      "تك": 2890,
      "والق": 2891,
      "الليزر": 2892,
      "##عمال": 2893,
      "##امي": 2894,
      "##طان": 2895,
      "ادارة": 2896,
      "الخارج": 2897,
      "##هاب": 2898,
      "##روس": 2899,
      "عندما": 2900,
      "مب": 2901,
      "##وتر": 2902,
      "##وبية": 2903,
      "الشعب": 2904,
      "والف": 2905,
      "##ظمة": 2906,
      "16": 2907,
      "##بلغ": 2908,
      "طلب": 2909,
      "##يانة": 2910,
      "##هي": 2911,
      "طب": 2912,
      "##افية": 2913,
      "لدي": 2914,
      "يص": 2915,
      "##شة": 2916,
      "عدم": 2917,
      "جديد": 2918,
      "##اهرة": 2919,
      "كثير": 2920,
      "##ve": 2921,
      "##واد": 2922,
      "نس": 2923,
      "##اكل": 2924,
      "##بيل": 2925,
      "الـ": 2926,
      "2016": 2927,
      "والخ": 2928,
      "##هدف": 2929,
      "القران": 2930,
      "##افظة": 2931,
      "##ent": 2932,
      "واخ": 2933,
      "##واع": 2934,
      "نج": 2935,
      "انحراف": 2936,
      "تو": 2937,
      "خاصة": 2938,
      "##اتب": 2939,
      "##وجد": 2940,
      "ملفات": 2941,
      "فن": 2942,
      "##ارب": 2943,
      "عق": 2944,
      "للع": 2945,
      "باس": 2946,
      "مكتبة": 2947,
      "العراق": 2948,
      "منطقة": 2949,
      "الارض": 2950,
      "##تك": 2951,
      "يون": 2952,
      "##et": 2953,
      "مسلسل": 2954,
      "##وبر": 2955,
      "الطب": 2956,
      "##ri": 2957,
      "##ملة": 2958,
      "قانون": 2959,
      "فع": 2960,
      "الرح": 2961,
      "مبار": 2962,
      "رب": 2963,
      "حك": 2964,
      "شيء": 2965,
      "مجموعة": 2966,
      "##اهدة": 2967,
      "سوق": 2968,
      "##ابل": 2969,
      "للش": 2970,
      "الوطني": 2971,
      "يف": 2972,
      "بدا": 2973,
      "المشار": 2974,
      "##يلي": 2975,
      "وزارة": 2976,
      "المملكة": 2977,
      "وعلى": 2978,
      "اجهزة": 2979,
      "واس": 2980,
      "##لاب": 2981,
      "##re": 2982,
      "##بيا": 2983,
      "الكويت": 2984,
      "الامير": 2985,
      "##ده": 2986,
      "##ابعة": 2987,
      "الفرن": 2988,
      "المراة": 2989,
      "التد": 2990,
      "قام": 2991,
      "الاب": 2992,
      "الفلسط": 2993,
      "القانون": 2994,
      "الدرا": 2995,
      "##تبر": 2996,
      "##فض": 2997,
      "##يار": 2998,
      "وزير": 2999,
      "##جميع": 3000,
      "عشر": 3001,
      "نص": 3002,
      "الكريم": 3003,
      "##مية": 3004,
      "17": 3005,
      "##طال": 3006,
      "الموس": 3007,
      "##ماية": 3008,
      "خاص": 3009,
      "نحن": 3010,
      "تل": 3011,
      "الخاص": 3012,
      "الثلاث": 3013,
      "##راهيم": 3014,
      "##وء": 3015,
      "فر": 3016,
      "المواضيع": 3017,
      "الاك": 3018,
      "##هاز": 3019,
      "##وفر": 3020,
      "##غل": 3021,
      "بص": 3022,
      "حين": 3023,
      "##هورية": 3024,
      "##جن": 3025,
      "تحميل": 3026,
      "الصفحة": 3027,
      "اللبن": 3028,
      "##ابع": 3029,
      "الحق": 3030,
      "##قر": 3031,
      "##مو": 3032,
      "الشخص": 3033,
      "##املة": 3034,
      "##طار": 3035,
      "##دات": 3036,
      "يخ": 3037,
      "##لمين": 3038,
      "السود": 3039,
      "##كرة": 3040,
      "الدكتور": 3041,
      "نف": 3042,
      "بسبب": 3043,
      "اعمال": 3044,
      "##الح": 3045,
      "لق": 3046,
      "المخرو": 3047,
      "##انة": 3048,
      "##طق": 3049,
      "المال": 3050,
      "دقايق": 3051,
      "الاخبار": 3052,
      "وجود": 3053,
      "##ناة": 3054,
      "##ادات": 3055,
      "ور": 3056,
      "الثانية": 3057,
      "##ترا": 3058,
      "##مي": 3059,
      "جاء": 3060,
      "المركز": 3061,
      "##ضية": 3062,
      "الجديد": 3063,
      "لس": 3064,
      "##حل": 3065,
      "مث": 3066,
      "##ماع": 3067,
      "##le": 3068,
      "ضد": 3069,
      "الوا": 3070,
      "ذات": 3071,
      "تقدم": 3072,
      "فا": 3073,
      "##باط": 3074,
      "فرن": 3075,
      "جه": 3076,
      "##رجة": 3077,
      "لد": 3078,
      "ومع": 3079,
      "##ولوج": 3080,
      "ند": 3081,
      "مف": 3082,
      "##احب": 3083,
      "##برا": 3084,
      "##دت": 3085,
      "##عى": 3086,
      "in": 3087,
      "قل": 3088,
      "##افي": 3089,
      "##ورا": 3090,
      "##طيع": 3091,
      "باست": 3092,
      "بير": 3093,
      "##طات": 3094,
      "المنطقة": 3095,
      "الحياة": 3096,
      "##اتف": 3097,
      "##تح": 3098,
      "الثق": 3099,
      "دين": 3100,
      "المدينة": 3101,
      "##يدا": 3102,
      "##علق": 3103,
      "##اعدة": 3104,
      "شبكية": 3105,
      "##اعات": 3106,
      "مدير": 3107,
      "مكان": 3108,
      "الكثير": 3109,
      "##بيوتر": 3110,
      "##طلب": 3111,
      "##هب": 3112,
      "قص": 3113,
      "##ريط": 3114,
      "التط": 3115,
      "مجال": 3116,
      "##تين": 3117,
      "##دن": 3118,
      "اللي": 3119,
      "مبا": 3120,
      "##كار": 3121,
      "بالق": 3122,
      "مرة": 3123,
      "نظام": 3124,
      "الظ": 3125,
      "##ايه": 3126,
      "الجديدة": 3127,
      "25": 3128,
      "##وني": 3129,
      "الرييسية": 3130,
      "##رر": 3131,
      "##رحلة": 3132,
      "الحد": 3133,
      "عمليات": 3134,
      "حالة": 3135,
      "##هرب": 3136,
      "الوطنية": 3137,
      "القط": 3138,
      "##ايمة": 3139,
      "كبيرة": 3140,
      "ضمن": 3141,
      "لش": 3142,
      "تقوم": 3143,
      "وتع": 3144,
      "بكل": 3145,
      "لدى": 3146,
      "رد": 3147,
      "نحو": 3148,
      "##يادة": 3149,
      "##داث": 3150,
      "##جا": 3151,
      "ابراهيم": 3152,
      "العرب": 3153,
      "بار": 3154,
      "##oo": 3155,
      "المعلومات": 3156,
      "##همة": 3157,
      "##لتقى": 3158,
      "##صوص": 3159,
      "الشعر": 3160,
      "ايام": 3161,
      "المب": 3162,
      "اكبر": 3163,
      "امن": 3164,
      "يب": 3165,
      "##جليز": 3166,
      "سوف": 3167,
      "التاريخ": 3168,
      "دولة": 3169,
      "الامارات": 3170,
      "##ادل": 3171,
      "نفسه": 3172,
      "وث": 3173,
      "##el": 3174,
      "##ولي": 3175,
      "ينا": 3176,
      "##ont": 3177,
      "##ضان": 3178,
      "وتح": 3179,
      "لقد": 3180,
      "الطبي": 3181,
      "ليز": 3182,
      "هم": 3183,
      "نشر": 3184,
      "يحت": 3185,
      "##قق": 3186,
      "com": 3187,
      "الدولي": 3188,
      "ريال": 3189,
      "المخروطية": 3190,
      "القد": 3191,
      "##طلق": 3192,
      "وام": 3193,
      "جامعة": 3194,
      "التف": 3195,
      "قت": 3196,
      "الحم": 3197,
      "21": 3198,
      "التى": 3199,
      "مشبات": 3200,
      "##ومي": 3201,
      "##هار": 3202,
      "##ليا": 3203,
      "##ing": 3204,
      "بو": 3205,
      "سلم": 3206,
      "تر": 3207,
      "##اصيل": 3208,
      "##ويات": 3209,
      "##تمر": 3210,
      "##خب": 3211,
      "بالرياض": 3212,
      "##عه": 3213,
      "مض": 3214,
      "الهند": 3215,
      "##جهة": 3216,
      "##كتب": 3217,
      "اللا": 3218,
      "##فال": 3219,
      "وضع": 3220,
      "2015": 3221,
      "30": 3222,
      "موضوع": 3223,
      "دور": 3224,
      "لانه": 3225,
      "لكل": 3226,
      "الماضي": 3227,
      "ارب": 3228,
      "##ظة": 3229,
      "سير": 3230,
      "##ai": 3231,
      "حسن": 3232,
      "نها": 3233,
      "##ومية": 3234,
      "روس": 3235,
      "##سكر": 3236,
      "حساب": 3237,
      "##ظايف": 3238,
      "##ot": 3239,
      "24": 3240,
      "المجتمع": 3241,
      "##بحث": 3242,
      "الاعلام": 3243,
      "th": 3244,
      "##راب": 3245,
      "للن": 3246,
      "الشرق": 3247,
      "جل": 3248,
      "مر": 3249,
      "الامام": 3250,
      "يمكنك": 3251,
      "##هن": 3252,
      "##تد": 3253,
      "##عاون": 3254,
      "##فيذ": 3255,
      "##حا": 3256,
      "الانترنت": 3257,
      "##ضمن": 3258,
      "خارج": 3259,
      "الاتحاد": 3260,
      "2014": 3261,
      "##ou": 3262,
      "##شاء": 3263,
      "##شاركة": 3264,
      "التس": 3265,
      "كن": 3266,
      "الجزاير": 3267,
      "بخ": 3268,
      "محت": 3269,
      "مواقع": 3270,
      "##امين": 3271,
      "##رجم": 3272,
      "الالكتروني": 3273,
      "الاط": 3274,
      "المصري": 3275,
      "##خصص": 3276,
      "##تهم": 3277,
      "العديد": 3278,
      "النظام": 3279,
      "الاخرى": 3280,
      "##ادرة": 3281,
      "##جاج": 3282,
      "##امات": 3283,
      "of": 3284,
      "##كال": 3285,
      "فريق": 3286,
      "انك": 3287,
      "لكم": 3288,
      "an": 3289,
      "راس": 3290,
      "نظ": 3291,
      "الرسم": 3292,
      "واحدة": 3293,
      "والان": 3294,
      "الاعضاء": 3295,
      "خلف": 3296,
      "ريا": 3297,
      "العالمية": 3298,
      "عين": 3299,
      "اسراييل": 3300,
      "الشع": 3301,
      "النق": 3302,
      "##بول": 3303,
      "لاع": 3304,
      "شر": 3305,
      "الصور": 3306,
      "مسوول": 3307,
      "##شات": 3308,
      "وات": 3309,
      "for": 3310,
      "امر": 3311,
      "الجيش": 3312,
      "البصر": 3313,
      "الاربع": 3314,
      "##جب": 3315,
      "دع": 3316,
      "كافة": 3317,
      "درا": 3318,
      "اجتما": 3319,
      "##اعر": 3320,
      "انواع": 3321,
      "القسم": 3322,
      "فهو": 3323,
      "##عرض": 3324,
      "معل": 3325,
      "##ذب": 3326,
      "وعد": 3327,
      "##ياس": 3328,
      "##درسة": 3329,
      "اصحاب": 3330,
      "##صب": 3331,
      "منهم": 3332,
      "حقوق": 3333,
      "##باب": 3334,
      "##اضافة": 3335,
      "تجمع": 3336,
      "##om": 3337,
      "st": 3338,
      "تنا": 3339,
      "السيد": 3340,
      "حسب": 3341,
      "لاب": 3342,
      "سع": 3343,
      "مليون": 3344,
      "##ub": 3345,
      "الاسلامي": 3346,
      "لـ": 3347,
      "##ورد": 3348,
      "سنوات": 3349,
      "المجلس": 3350,
      "##عداد": 3351,
      "قدم": 3352,
      "الكتاب": 3353,
      "رمضان": 3354,
      "ارش": 3355,
      "المغرب": 3356,
      "##غيير": 3357,
      "الاخيرة": 3358,
      "##شن": 3359,
      "##باء": 3360,
      "##ra": 3361,
      "اون": 3362,
      "##نف": 3363,
      "للد": 3364,
      "2013": 3365,
      "##نيا": 3366,
      "التربية": 3367,
      "اكتوبر": 3368,
      "مستوى": 3369,
      "بيع": 3370,
      "الخارجية": 3371,
      "الشركة": 3372,
      "##اند": 3373,
      "##خة": 3374,
      "خدمة": 3375,
      "لنا": 3376,
      "##ation": 3377,
      "السياسية": 3378,
      "##يية": 3379,
      "مز": 3380,
      "روا": 3381,
      "الشم": 3382,
      "البن": 3383,
      "الاعمال": 3384,
      "##غب": 3385,
      "الامريكية": 3386,
      "الحول": 3387,
      "##اا": 3388,
      "الترك": 3389,
      "والث": 3390,
      "##ستان": 3391,
      "بول": 3392,
      "ويت": 3393,
      "كون": 3394,
      "تز": 3395,
      "وليس": 3396,
      "عز": 3397,
      "##تنا": 3398,
      "الاتصال": 3399,
      "مار": 3400,
      "فعل": 3401,
      "فيديو": 3402,
      "##كلفة": 3403,
      "##وكد": 3404,
      "##وتي": 3405,
      "##ابت": 3406,
      "عاي": 3407,
      "المم": 3408,
      "##وضع": 3409,
      "##شفى": 3410,
      "##انه": 3411,
      "حزب": 3412,
      "##اسية": 3413,
      "##ol": 3414,
      "النف": 3415,
      "##قالات": 3416,
      "المنتديات": 3417,
      "مغ": 3418,
      "##راءة": 3419,
      "مشروع": 3420,
      "22": 3421,
      "الخم": 3422,
      "بدون": 3423,
      "المل": 3424,
      "عليهم": 3425,
      "##روحات": 3426,
      "مشاهدة": 3427,
      "##ذر": 3428,
      "##ويا": 3429,
      "وكل": 3430,
      "##بارات": 3431,
      "##رعة": 3432,
      "100": 3433,
      "للق": 3434,
      "##طاء": 3435,
      "الفي": 3436,
      "شع": 3437,
      "التواصل": 3438,
      "سيد": 3439,
      "##جاز": 3440,
      "اضافة": 3441,
      "دم": 3442,
      "والاست": 3443,
      "pm": 3444,
      "بالع": 3445,
      "##صري": 3446,
      "##بيه": 3447,
      "الرسايل": 3448,
      "نوع": 3449,
      "باع": 3450,
      "##قية": 3451,
      "بناء": 3452,
      "##فسير": 3453,
      "الرب": 3454,
      "الكم": 3455,
      "المحت": 3456,
      "بات": 3457,
      "بالح": 3458,
      "##امن": 3459,
      "واد": 3460,
      "صد": 3461,
      "##لمات": 3462,
      "الدولية": 3463,
      "##فش": 3464,
      "واح": 3465,
      "امس": 3466,
      "يول": 3467,
      "سوريا": 3468,
      "##id": 3469,
      "##ناه": 3470,
      "al": 3471,
      "سليم": 3472,
      "قول": 3473,
      "##وون": 3474,
      "تعليم": 3475,
      "يكن": 3476,
      "ملتقى": 3477,
      "المر": 3478,
      "الجمعة": 3479,
      "##واجد": 3480,
      "القص": 3481,
      "المسي": 3482,
      "كال": 3483,
      "مرت": 3484,
      "القنوات": 3485,
      "المف": 3486,
      "الجل": 3487,
      "الاغ": 3488,
      "وكذلك": 3489,
      "##اده": 3490,
      "واك": 3491,
      "##قتل": 3492,
      "تطبيق": 3493,
      "عنها": 3494,
      "##خابات": 3495,
      "اللج": 3496,
      "الاه": 3497,
      "##عام": 3498,
      "##ov": 3499,
      "صلاح": 3500,
      "باي": 3501,
      "الحي": 3502,
      "يعني": 3503,
      "##امر": 3504,
      "فض": 3505,
      "##تمد": 3506,
      "وار": 3507,
      "مي": 3508,
      "الحلقة": 3509,
      "الدولار": 3510,
      "فلسط": 3511,
      "##ياب": 3512,
      "##راح": 3513,
      "دار": 3514,
      "رحم": 3515,
      "##يري": 3516,
      "am": 3517,
      "##تيجة": 3518,
      "لله": 3519,
      "محم": 3520,
      "واف": 3521,
      "##عاية": 3522,
      "يقوم": 3523,
      "مول": 3524,
      "##ريك": 3525,
      "##فاء": 3526,
      "الدخول": 3527,
      "انس": 3528,
      "العب": 3529,
      "صباح": 3530,
      "بور": 3531,
      "الصلاة": 3532,
      "##20": 3533,
      "هول": 3534,
      "##ضور": 3535,
      "بلا": 3536,
      "التسجيل": 3537,
      "##ولات": 3538,
      "##زا": 3539,
      "والاس": 3540,
      "واي": 3541,
      "سواء": 3542,
      "تغ": 3543,
      "لمن": 3544,
      "##ثم": 3545,
      "##دينا": 3546,
      "زوج": 3547,
      "الانجليز": 3548,
      "للبيع": 3549,
      "##غيرة": 3550,
      "##رقاء": 3551,
      "نع": 3552,
      "##رص": 3553,
      "بنفس": 3554,
      "وعلا": 3555,
      "بالد": 3556,
      "السعودي": 3557,
      "الداخل": 3558,
      "صحيح": 3559,
      "##اله": 3560,
      "##كيل": 3561,
      "خدمات": 3562,
      "الخام": 3563,
      "##ذهب": 3564,
      "23": 3565,
      "والذي": 3566,
      "واق": 3567,
      "##شرين": 3568,
      "##ثة": 3569,
      "##وسف": 3570,
      "الخلي": 3571,
      "##خر": 3572,
      "##زن": 3573,
      "بف": 3574,
      "##ter": 3575,
      "##روط": 3576,
      "##اجة": 3577,
      "حدثنا": 3578,
      "لاي": 3579,
      "نش": 3580,
      "المواقع": 3581,
      "وض": 3582,
      "##ريل": 3583,
      "يك": 3584,
      "##ارع": 3585,
      "السوري": 3586,
      "دا": 3587,
      "الجه": 3588,
      "العلا": 3589,
      "هد": 3590,
      "الحصول": 3591,
      "##كام": 3592,
      "##وين": 3593,
      "عليك": 3594,
      "عروض": 3595,
      "##انوي": 3596,
      "والاع": 3597,
      "الفن": 3598,
      "لذلك": 3599,
      "تنظيف": 3600,
      "نظر": 3601,
      "wa": 3602,
      "##واي": 3603,
      "البرامج": 3604,
      "وبعد": 3605,
      "##خاص": 3606,
      "##عاب": 3607,
      "عاما": 3608,
      "01": 3609,
      "##اسب": 3610,
      "الشباب": 3611,
      "##راحة": 3612,
      "##سك": 3613,
      "##um": 3614,
      "صاحب": 3615,
      "حي": 3616,
      "توف": 3617,
      "##ادق": 3618,
      "الاربعاء": 3619,
      "2012": 3620,
      "داي": 3621,
      "النج": 3622,
      "##ملك": 3623,
      "المز": 3624,
      "ني": 3625,
      "ليست": 3626,
      "بغ": 3627,
      "الدي": 3628,
      "المط": 3629,
      "عدة": 3630,
      "بري": 3631,
      "وين": 3632,
      "##اهر": 3633,
      "العلوم": 3634,
      "الادارة": 3635,
      "##روج": 3636,
      "بـ": 3637,
      "تقديم": 3638,
      "##ناعة": 3639,
      "رضي": 3640,
      "##os": 3641,
      "##قرا": 3642,
      "بالاضافة": 3643,
      "باسم": 3644,
      "##هداف": 3645,
      "كث": 3646,
      "ساب": 3647,
      "ارض": 3648,
      "سعيد": 3649,
      "المسلمين": 3650,
      "اصد": 3651,
      "##يته": 3652,
      "##اغ": 3653,
      "المزيد": 3654,
      "والتع": 3655,
      "ويع": 3656,
      "اسعار": 3657,
      "المالية": 3658,
      "المسوول": 3659,
      "الجام": 3660,
      "##خي": 3661,
      "الاجتماعي": 3662,
      "##حب": 3663,
      "السن": 3664,
      "السياسي": 3665,
      "المواطن": 3666,
      "re": 3667,
      "##غيل": 3668,
      "مساء": 3669,
      "##ويد": 3670,
      "##خذ": 3671,
      "بني": 3672,
      "الثالثة": 3673,
      "##وبي": 3674,
      "المستخدم": 3675,
      "صوت": 3676,
      "##جاب": 3677,
      "كلمة": 3678,
      "is": 3679,
      "##شق": 3680,
      "##كلة": 3681,
      "السابق": 3682,
      "المصرية": 3683,
      "ارشيف": 3684,
      "وصل": 3685,
      "السيارات": 3686,
      "##فات": 3687,
      "##كنولوج": 3688,
      "الرجل": 3689,
      "##بس": 3690,
      "##برة": 3691,
      "##ماعة": 3692,
      "بلغ": 3693,
      "الساعة": 3694,
      "الوطن": 3695,
      "##بعة": 3696,
      "##راث": 3697,
      "سعد": 3698,
      "تطوير": 3699,
      "ته": 3700,
      "المشت": 3701,
      "##ادم": 3702,
      "##وجه": 3703,
      "##ياء": 3704,
      "اند": 3705,
      "اليمن": 3706,
      "##رجمة": 3707,
      "##ريقيا": 3708,
      "المتم": 3709,
      "يل": 3710,
      "##رييس": 3711,
      "الصحة": 3712,
      "فيلم": 3713,
      "جد": 3714,
      "##24": 3715,
      "حيات": 3716,
      "##راع": 3717,
      "للمنت": 3718,
      "##كمة": 3719,
      "##عض": 3720,
      "##هير": 3721,
      "اثناء": 3722,
      "الكمبيوتر": 3723,
      "افلام": 3724,
      "بهذا": 3725,
      "##راعة": 3726,
      "الرحمن": 3727,
      "يسم": 3728,
      "التم": 3729,
      "البلاد": 3730,
      "##طا": 3731,
      "wave": 3732,
      "تتم": 3733,
      "الاعت": 3734,
      "##وجود": 3735,
      "رجل": 3736,
      "##راءات": 3737,
      "قرار": 3738,
      "واضاف": 3739,
      "قض": 3740,
      "##يي": 3741,
      "ولو": 3742,
      "##سكرية": 3743,
      "صيانة": 3744,
      "والك": 3745,
      "بالك": 3746,
      "##ضح": 3747,
      "##يرات": 3748,
      "كذلك": 3749,
      "##55": 3750,
      "تصميم": 3751,
      "##ايدة": 3752,
      "##fr": 3753,
      "الاثنين": 3754,
      "تكلفة": 3755,
      "لص": 3756,
      "##ow": 3757,
      "##فار": 3758,
      "##سر": 3759,
      "##ليق": 3760,
      "الثلاثاء": 3761,
      "##الك": 3762,
      "الدع": 3763,
      "##انى": 3764,
      "الاجتماعية": 3765,
      "جعل": 3766,
      "الموسم": 3767,
      "الزرقاء": 3768,
      "##صالح": 3769,
      "رشد": 3770,
      "الاشترا": 3771,
      "##وغ": 3772,
      "تا": 3773,
      "الحرب": 3774,
      "##فية": 3775,
      "الالكترونية": 3776,
      "مشاركة": 3777,
      "the": 3778,
      "توا": 3779,
      "2011": 3780,
      "مواضيع": 3781,
      "الراي": 3782,
      "##il": 3783,
      "واذا": 3784,
      "لوحة": 3785,
      "اسبوع": 3786,
      "ht": 3787,
      "##شل": 3788,
      "الانس": 3789,
      "مارس": 3790,
      "pro": 3791,
      "##اسة": 3792,
      "عقد": 3793,
      "يريد": 3794,
      "كانوا": 3795,
      "المبار": 3796,
      "##هلا": 3797,
      "##فن": 3798,
      "كاس": 3799,
      "احدث": 3800,
      "معه": 3801,
      "المنزل": 3802,
      "##us": 3803,
      "ويم": 3804,
      "فانه": 3805,
      "يوجد": 3806,
      "##ولا": 3807,
      "##اصمة": 3808,
      "##زه": 3809,
      "##شرات": 3810,
      "##لن": 3811,
      "ماء": 3812,
      "##ونس": 3813,
      "##تمبر": 3814,
      "وسط": 3815,
      "العضو": 3816,
      "طريقة": 3817,
      "الصورة": 3818,
      "##شا": 3819,
      "##اتها": 3820,
      "اليها": 3821,
      "اختي": 3822,
      "##كور": 3823,
      "والله": 3824,
      "فتح": 3825,
      "النس": 3826,
      "وبين": 3827,
      "##قدمة": 3828,
      "والب": 3829,
      "المشاركة": 3830,
      "رفع": 3831,
      "اقت": 3832,
      "امري": 3833,
      "وجد": 3834,
      "##افحة": 3835,
      "تركيا": 3836,
      "##اليات": 3837,
      "للاست": 3838,
      "وعلاجه": 3839,
      "النب": 3840,
      "بداية": 3841,
      "يز": 3842,
      "للج": 3843,
      "اشهر": 3844,
      "معا": 3845,
      "دكتور": 3846,
      "##ذة": 3847,
      "##جية": 3848,
      "محافظة": 3849,
      "##وها": 3850,
      "##32": 3851,
      "28": 3852,
      "افريقيا": 3853,
      "الاحد": 3854,
      "##مرار": 3855,
      "rem": 3856,
      "بالس": 3857,
      "الخميس": 3858,
      "ملك": 3859,
      "اعادة": 3860,
      "26": 3861,
      "سبتمبر": 3862,
      "امراض": 3863,
      "الصوت": 3864,
      "فوق": 3865,
      "##ريات": 3866,
      "##جار": 3867,
      "وتن": 3868,
      "##جاه": 3869,
      "وعن": 3870,
      "##per": 3871,
      "السم": 3872,
      "سورية": 3873,
      "البيت": 3874,
      "تحقيق": 3875,
      "##فتح": 3876,
      "##ag": 3877,
      "صالح": 3878,
      "الحسن": 3879,
      "ينت": 3880,
      "اساس": 3881,
      "الخدمات": 3882,
      "يه": 3883,
      "جانب": 3884,
      "البط": 3885,
      "خالد": 3886,
      "خير": 3887,
      "القاهرة": 3888,
      "رح": 3889,
      "يوسف": 3890,
      "را": 3891,
      "فاذا": 3892,
      "سعر": 3893,
      "ثلاثة": 3894,
      "##يط": 3895,
      "بكر": 3896,
      "##وعات": 3897,
      "اسلام": 3898,
      "##زين": 3899,
      "##هاد": 3900,
      "##خدمات": 3901,
      "امير": 3902,
      "لجنة": 3903,
      "يعمل": 3904,
      "مرا": 3905,
      "الحب": 3906,
      "جزر": 3907,
      "الحكم": 3908,
      "فلسطين": 3909,
      "##خصصة": 3910,
      "وكانت": 3911,
      "##يمان": 3912,
      "خل": 3913,
      "نادي": 3914,
      "##ارض": 3915,
      "بالعين": 3916,
      "جري": 3917,
      "لاست": 3918,
      "##حمل": 3919,
      "انهم": 3920,
      "##راتيج": 3921,
      "##رفع": 3922,
      "##صح": 3923,
      "انما": 3924,
      "حكم": 3925,
      "##امية": 3926,
      "27": 3927,
      "الجامعة": 3928,
      "##فاظ": 3929,
      "اية": 3930,
      "ليزك": 3931,
      "جنوب": 3932,
      "امت": 3933,
      "##ويس": 3934,
      "لتص": 3935,
      "##front": 3936,
      "##هادة": 3937,
      "تعمل": 3938,
      "wavefront": 3939,
      "##دد": 3940,
      "الابت": 3941,
      "ثق": 3942,
      "بذلك": 3943,
      "المختلف": 3944,
      "ترت": 3945,
      "لغ": 3946,
      "حب": 3947,
      "##لاع": 3948,
      "##جرة": 3949,
      "##عو": 3950,
      "صورة": 3951,
      "##تمام": 3952,
      "##الج": 3953,
      "الحر": 3954,
      "القدم": 3955,
      "وتش": 3956,
      "رغ": 3957,
      "وصف": 3958,
      "المث": 3959,
      "##روب": 3960,
      "يعرف": 3961,
      "شك": 3962,
      "سكس": 3963,
      "##ch": 3964,
      "##هه": 3965,
      "السبت": 3966,
      "وتم": 3967,
      "والام": 3968,
      "دايما": 3969,
      "السوق": 3970,
      "الوزراء": 3971,
      "الاخر": 3972,
      "مفت": 3973,
      "اللجنة": 3974,
      "##نب": 3975,
      "ايران": 3976,
      "وغ": 3977,
      "قدر": 3978,
      "جي": 3979,
      "عبدالله": 3980,
      "##im": 3981,
      "لتح": 3982,
      "بالنسبة": 3983,
      "##ونا": 3984,
      "طبي": 3985,
      "النساء": 3986,
      "الاسبوع": 3987,
      "بالش": 3988,
      "##داول": 3989,
      "وحد": 3990,
      "##78": 3991,
      "نتيجة": 3992,
      "##اقات": 3993,
      "##ريري": 3994,
      "##راييلي": 3995,
      "الست": 3996,
      "##ab": 3997,
      "199": 3998,
      "##لين": 3999,
      "المواد": 4000,
      "دعم": 4001,
      "الجمهورية": 4002,
      "مشاكل": 4003,
      "##سون": 4004,
      "##ليه": 4005,
      "جنيه": 4006,
      "مباراة": 4007,
      "الاستاذ": 4008,
      "##tp": 4009,
      "معلومات": 4010,
      "ديك": 4011,
      "الفلسطيني": 4012,
      "##ريح": 4013,
      "شه": 4014,
      "علاج": 4015,
      "##يتي": 4016,
      "متوسط": 4017,
      "فح": 4018,
      "هاتف": 4019,
      "شكل": 4020,
      "##ريض": 4021,
      "يونيو": 4022,
      "##الا": 4023,
      "##ورت": 4024,
      "اولا": 4025,
      "يناير": 4026,
      "والط": 4027,
      "d8": 4028,
      "sp": 4029,
      "وتق": 4030,
      "##ثمان": 4031,
      "شركات": 4032,
      "تحكم": 4033,
      "لاين": 4034,
      "##فير": 4035,
      "##فو": 4036,
      "pr": 4037,
      "##ليقات": 4038,
      "اعضاء": 4039,
      "كام": 4040,
      "واله": 4041,
      "الالم": 4042,
      "لاح": 4043,
      "اقل": 4044,
      "##تع": 4045,
      "لهذا": 4046,
      "##يتها": 4047,
      "بالج": 4048,
      "الساد": 4049,
      "البشر": 4050,
      "05": 4051,
      "روسيا": 4052,
      "##اسم": 4053,
      "##ريس": 4054,
      "##ابه": 4055,
      "##والي": 4056,
      "الاير": 4057,
      "تعديل": 4058,
      "##يزات": 4059,
      "##ومن": 4060,
      "نور": 4061,
      "الفريق": 4062,
      "قتل": 4063,
      "الصين": 4064,
      "##اكد": 4065,
      "##علن": 4066,
      "##سلحة": 4067,
      "ابر": 4068,
      "مترجم": 4069,
      "قطر": 4070,
      "##يفات": 4071,
      "وير": 4072,
      "برو": 4073,
      "مادة": 4074,
      "لقاء": 4075,
      "مستشفى": 4076,
      "واما": 4077,
      "قناة": 4078,
      "00": 4079,
      "29": 4080,
      "شرك": 4081,
      "نز": 4082,
      "يعد": 4083,
      "##تر": 4084,
      "##rip": 4085,
      "##زيون": 4086,
      "سيكون": 4087,
      "##فين": 4088,
      "يوليو": 4089,
      "الاقتصادية": 4090,
      "عفش": 4091,
      "كامل": 4092,
      "##ig": 4093,
      "##ريع": 4094,
      "##سكري": 4095,
      "الديم": 4096,
      "واص": 4097,
      "كثيرا": 4098,
      "داع": 4099,
      "سليمان": 4100,
      "المك": 4101,
      "cost": 4102,
      "الفض": 4103,
      "مقابل": 4104,
      "يمن": 4105,
      "نتايج": 4106,
      "##اكم": 4107,
      "اللبنانية": 4108,
      "##راز": 4109,
      "للسنة": 4110,
      "الكهرب": 4111,
      "الدفاع": 4112,
      "##وام": 4113,
      "الداخلية": 4114,
      "قري": 4115,
      "جهاز": 4116,
      "##رز": 4117,
      "##طرة": 4118,
      "##قييم": 4119,
      "##un": 4120,
      "الرد": 4121,
      "##واس": 4122,
      "العالمي": 4123,
      "##كنولوجيا": 4124,
      "يرج": 4125,
      "##ابي": 4126,
      "اللهم": 4127,
      "بام": 4128,
      "ثانوي": 4129,
      "واج": 4130,
      "الانجليزية": 4131,
      "اطفال": 4132,
      "مرض": 4133,
      "##ثمار": 4134,
      "الشه": 4135,
      "##ديا": 4136,
      "##وو": 4137,
      "تسم": 4138,
      "وهم": 4139,
      "##تا": 4140,
      "تفسير": 4141,
      "رسالة": 4142,
      "رسم": 4143,
      "نهاية": 4144,
      "سين": 4145,
      "##نبية": 4146,
      "بنات": 4147,
      "الماض": 4148,
      "رغم": 4149,
      "غزة": 4150,
      "والاخ": 4151,
      "سيارات": 4152,
      "##اره": 4153,
      "موسسة": 4154,
      "وظايف": 4155,
      "##جميل": 4156,
      "كاتب": 4157,
      "الور": 4158,
      "الشخصية": 4159,
      "ظل": 4160,
      "##عبة": 4161,
      "اخذ": 4162,
      "عنوان": 4163,
      "للمنتدى": 4164,
      "##رال": 4165,
      "الكبير": 4166,
      "عما": 4167,
      "السودان": 4168,
      "الازرق": 4169,
      "مطل": 4170,
      "اثاث": 4171,
      "تعرف": 4172,
      "تعريف": 4173,
      "الشركات": 4174,
      "الفيديو": 4175,
      "الامريكي": 4176,
      "العزيز": 4177,
      "فمن": 4178,
      "##ارق": 4179,
      "العلاج": 4180,
      "والل": 4181,
      "##حر": 4182,
      "##رجان": 4183,
      "البلد": 4184,
      "المفت": 4185,
      "الزوج": 4186,
      "الحبيب": 4187,
      "##جمات": 4188,
      "حركة": 4189,
      "دينار": 4190,
      "هولاء": 4191,
      "##بال": 4192,
      "دخول": 4193,
      "ابريل": 4194,
      "للاع": 4195,
      "والمع": 4196,
      "المختلفة": 4197,
      "اكد": 4198,
      "##ايع": 4199,
      "عضو": 4200,
      "##داء": 4201,
      "##خف": 4202,
      "##واعد": 4203,
      "##حه": 4204,
      "##ساد": 4205,
      "remov": 4206,
      "النها": 4207,
      "الاردن": 4208,
      "لات": 4209,
      "دورة": 4210,
      "بينهم": 4211,
      "كلام": 4212,
      "##ia": 4213,
      "##ليف": 4214,
      "##براير": 4215,
      "الحوار": 4216,
      "##اديم": 4217,
      "الذى": 4218,
      "##بدو": 4219,
      "اني": 4220,
      "2010": 4221,
      "الاجهزة": 4222,
      "##ـة": 4223,
      "حسين": 4224,
      "المرحلة": 4225,
      "##سلة": 4226,
      "ممكن": 4227,
      "##ابط": 4228,
      "الفنان": 4229,
      "مايو": 4230,
      "07": 4231,
      "09": 4232,
      "الدوري": 4233,
      "الطريق": 4234,
      "بث": 4235,
      "قس": 4236,
      "شرح": 4237,
      "تمثل": 4238,
      "محمود": 4239,
      "عليكم": 4240,
      "##ir": 4241,
      "فبراير": 4242,
      "##زام": 4243,
      "##vis": 4244,
      "##ay": 4245,
      "الاشتراكات": 4246,
      "الارت": 4247,
      "وانت": 4248,
      "البرنامج": 4249,
      "##بين": 4250,
      "جو": 4251,
      "تنظيم": 4252,
      "بيانات": 4253,
      "##وحة": 4254,
      "دخل": 4255,
      "العلمية": 4256,
      "طل": 4257,
      "النار": 4258,
      "##سطس": 4259,
      "عالية": 4260,
      "يو": 4261,
      "الفلسطينية": 4262,
      "ساعة": 4263,
      "الكن": 4264,
      "##خلص": 4265,
      "تعد": 4266,
      "وغيرها": 4267,
      "مات": 4268,
      "السورية": 4269,
      "##op": 4270,
      "بينما": 4271,
      "##اخذ": 4272,
      "يغ": 4273,
      "##كين": 4274,
      "كفر": 4275,
      "الطفل": 4276,
      "فترة": 4277,
      "##سمبر": 4278,
      "عنا": 4279,
      "المنش": 4280,
      "جمع": 4281,
      "القوات": 4282,
      "الامور": 4283,
      "##قدر": 4284,
      "لهذه": 4285,
      "مشت": 4286,
      "اتفاق": 4287,
      "قالت": 4288,
      "وانما": 4289,
      "حكومة": 4290,
      "50": 4291,
      "شبكة": 4292,
      "طي": 4293,
      "اغسطس": 4294,
      "##وانين": 4295,
      "بمن": 4296,
      "واخت": 4297,
      "##اهم": 4298,
      "##ريعة": 4299,
      "الجميع": 4300,
      "ديسمبر": 4301,
      "الياب": 4302,
      "بانه": 4303,
      "الفترة": 4304,
      "اثر": 4305,
      "للف": 4306,
      "##ـم": 4307,
      "النفس": 4308,
      "الرم": 4309,
      "يط": 4310,
      "##عون": 4311,
      "الخدمة": 4312,
      "##واة": 4313,
      "##راس": 4314,
      "31": 4315,
      "تعرض": 4316,
      "طرف": 4317,
      "##صى": 4318,
      "لذا": 4319,
      "التجارية": 4320,
      "##ندق": 4321,
      "اثار": 4322,
      "##ايلة": 4323,
      "افت": 4324,
      "النص": 4325,
      "العن": 4326,
      "كلية": 4327,
      "تعلم": 4328,
      "##واتف": 4329,
      "عباس": 4330,
      "قر": 4331,
      "المتواجد": 4332,
      "شهد": 4333,
      "##عيش": 4334,
      "اللبناني": 4335,
      "التعريف": 4336,
      "مدى": 4337,
      "##est": 4338,
      "مخت": 4339,
      "##رفيه": 4340,
      "##راقي": 4341,
      "##رايب": 4342,
      "02": 4343,
      "http": 4344,
      "##دل": 4345,
      "##ابر": 4346,
      "لف": 4347,
      "##وسي": 4348,
      "المناطق": 4349,
      "شييا": 4350,
      "القدس": 4351,
      "##طوير": 4352,
      "فق": 4353,
      "قطاع": 4354,
      "التخ": 4355,
      "الامم": 4356,
      "بالف": 4357,
      "زيادة": 4358,
      "حما": 4359,
      "الاور": 4360,
      "##ماعيل": 4361,
      "والغ": 4362,
      "واش": 4363,
      "##رامب": 4364,
      "##▬▬": 4365,
      "##رافي": 4366,
      "##برى": 4367,
      "قوات": 4368,
      "##ذية": 4369,
      "شعب": 4370,
      "المحلية": 4371,
      "صحيفة": 4372,
      "نقص": 4373,
      "مختلفة": 4374,
      "##ـي": 4375,
      "هيية": 4376,
      "اورو": 4377,
      "##وكس": 4378,
      "الفرنسية": 4379,
      "and": 4380,
      "يتعلق": 4381,
      "الحج": 4382,
      "مباشر": 4383,
      "##وبات": 4384,
      "الدنيا": 4385,
      "##وجيه": 4386,
      "اخبر": 4387,
      "مباشرة": 4388,
      "##هج": 4389,
      "الحسين": 4390,
      "قلت": 4391,
      "المكت": 4392,
      "والاج": 4393,
      "000": 4394,
      "##بيقات": 4395,
      "الملف": 4396,
      "القي": 4397,
      "يقدم": 4398,
      "##غال": 4399,
      "صحة": 4400,
      "##حين": 4401,
      "الطبية": 4402,
      "##قاومة": 4403,
      "##لاك": 4404,
      "##ولية": 4405,
      "##حتى": 4406,
      "القب": 4407,
      "سه": 4408,
      "يزيد": 4409,
      "سبيل": 4410,
      "وانا": 4411,
      "جزء": 4412,
      "##نه": 4413,
      "الكتب": 4414,
      "##حمر": 4415,
      "اصل": 4416,
      "احي": 4417,
      "الماضية": 4418,
      "الاحتلال": 4419,
      "##يرية": 4420,
      "يوما": 4421,
      "الاسراييلي": 4422,
      "المناسب": 4423,
      "##كذا": 4424,
      "##جاد": 4425,
      "الها": 4426,
      "عص": 4427,
      "قلب": 4428,
      "##ايها": 4429,
      "##ناسبة": 4430,
      "##وانات": 4431,
      "##ثلة": 4432,
      "##طفى": 4433,
      "##ايت": 4434,
      "##صفح": 4435,
      "##اميم": 4436,
      "القلب": 4437,
      "مسلم": 4438,
      "تض": 4439,
      "يحي": 4440,
      "##oc": 4441,
      "المستوى": 4442,
      "سبح": 4443,
      "##ذج": 4444,
      "نسبة": 4445,
      "المتواجدون": 4446,
      "تريد": 4447,
      "البحر": 4448,
      "##رفين": 4449,
      "خم": 4450,
      "##برامج": 4451,
      "##ادت": 4452,
      "##طور": 4453,
      "##نج": 4454,
      "خلق": 4455,
      "فما": 4456,
      "كيفية": 4457,
      "موسى": 4458,
      "الفني": 4459,
      "##داية": 4460,
      "الكترون": 4461,
      "08": 4462,
      "عمان": 4463,
      "معرض": 4464,
      "##اسي": 4465,
      "##ox": 4466,
      "ارد": 4467,
      "06": 4468,
      "لسنة": 4469,
      "##زمة": 4470,
      "##قوق": 4471,
      "الخبر": 4472,
      "باستخدام": 4473,
      "اصبح": 4474,
      "البريط": 4475,
      "لانها": 4476,
      "يعتبر": 4477,
      "##يارات": 4478,
      "قم": 4479,
      "تنت": 4480,
      "احدى": 4481,
      "اور": 4482,
      "حصل": 4483,
      "در": 4484,
      "40": 4485,
      "##ويه": 4486,
      "الباب": 4487,
      "المجال": 4488,
      "##وزيع": 4489,
      "عامة": 4490,
      "الفر": 4491,
      "اشت": 4492,
      "##سد": 4493,
      "##ضافة": 4494,
      "##يح": 4495,
      "بنا": 4496,
      "عش": 4497,
      "##يال": 4498,
      "الشريف": 4499,
      "##صاص": 4500,
      "##99": 4501,
      "##نوعة": 4502,
      "الصنا": 4503,
      "عمرو": 4504,
      "بشان": 4505,
      "درجة": 4506,
      "الالعاب": 4507,
      "كشف": 4508,
      "الطلاب": 4509,
      "##ارد": 4510,
      "##رسوم": 4511,
      "##وشوب": 4512,
      "للاس": 4513,
      "الشاعر": 4514,
      "سورة": 4515,
      "صفحة": 4516,
      "الاورو": 4517,
      "بالب": 4518,
      "محد": 4519,
      "التر": 4520,
      "المول": 4521,
      "##جع": 4522,
      "دبي": 4523,
      "سك": 4524,
      "اطار": 4525,
      "03": 4526,
      "ترم": 4527,
      "قب": 4528,
      "##وضح": 4529,
      "الاخت": 4530,
      "اللقاء": 4531,
      "محتوى": 4532,
      "هند": 4533,
      "لمدة": 4534,
      "الفق": 4535,
      "وحتى": 4536,
      "معظم": 4537,
      "##قلال": 4538,
      "ارتفاع": 4539,
      "##ريا": 4540,
      "##اعي": 4541,
      "عربي": 4542,
      "اير": 4543,
      "##10": 4544,
      "الشهر": 4545,
      "الاسرة": 4546,
      "##يسي": 4547,
      "شعر": 4548,
      "##وتوشوب": 4549,
      "عربية": 4550,
      "حس": 4551,
      "##كوين": 4552,
      "##فى": 4553,
      "المطل": 4554,
      "باك": 4555,
      "فك": 4556,
      "دفع": 4557,
      "##ونه": 4558,
      "عرف": 4559,
      "البد": 4560,
      "ورو": 4561,
      "يذكر": 4562,
      "ترامب": 4563,
      "##فسارات": 4564,
      "المشاهد": 4565,
      "الخل": 4566,
      "اننا": 4567,
      "تسجيل": 4568,
      "فهي": 4569,
      "اهلا": 4570,
      "ضر": 4571,
      "##لفزيون": 4572,
      "استش": 4573,
      "##ندس": 4574,
      "ورد": 4575,
      "حمل": 4576,
      "04": 4577,
      "الاقسام": 4578,
      "##وعية": 4579,
      "الوس": 4580,
      "خص": 4581,
      "##يلات": 4582,
      "اى": 4583,
      "trip": 4584,
      "وبالت": 4585,
      "d9": 4586,
      "##ويق": 4587,
      "للتسجيل": 4588,
      "##راجع": 4589,
      "##ناك": 4590,
      "حياة": 4591,
      "عيد": 4592,
      "وسي": 4593,
      "قنوات": 4594,
      "بيروت": 4595,
      "##۞۩": 4596,
      "طلبات": 4597,
      "قايمة": 4598,
      "سنويا": 4599,
      "##ديق": 4600,
      "##ايح": 4601,
      "##اوي": 4602,
      "بنفسك": 4603,
      "##ارا": 4604,
      "ومت": 4605,
      "##خدمة": 4606,
      "الانتخابات": 4607,
      "بحث": 4608,
      "##نيين": 4609,
      "اكس": 4610,
      "نعم": 4611,
      "اعلان": 4612,
      "ونحن": 4613,
      "السكري": 4614,
      "##visor": 4615,
      "##اولة": 4616,
      "تستخدم": 4617,
      "##ظيفة": 4618,
      "##حف": 4619,
      "2009": 4620,
      "##قص": 4621,
      "##advisor": 4622,
      "مكافحة": 4623,
      "tripadvisor": 4624,
      "الهيية": 4625,
      "المتميزة": 4626,
      "##حمة": 4627,
      "##طيب": 4628,
      "45": 4629,
      "تكن": 4630,
      "شمال": 4631,
      "الحريري": 4632,
      "##باق": 4633,
      "##ارير": 4634,
      "لعبة": 4635,
      "العسكرية": 4636,
      "##ذف": 4637,
      "##كير": 4638,
      "روح": 4639,
      "##ايزة": 4640,
      "مالك": 4641,
      "الديمقرا": 4642,
      "السياحة": 4643,
      "عثمان": 4644,
      "الرياضية": 4645,
      "العليا": 4646,
      "اهمية": 4647,
      "##ارف": 4648,
      "وعلاج": 4649,
      "تمت": 4650,
      "##يفا": 4651,
      "##افع": 4652,
      "بمع": 4653,
      "بنت": 4654,
      "اين": 4655,
      "سام": 4656,
      "وست": 4657,
      "198": 4658,
      "ولد": 4659,
      "ad": 4660,
      "##وخ": 4661,
      "اعلن": 4662,
      "لدينا": 4663,
      "ch": 4664,
      "الجوال": 4665,
      "التعاون": 4666,
      "الاقتصاد": 4667,
      "شراء": 4668,
      "البحرين": 4669,
      "مكتب": 4670,
      "##فعيل": 4671,
      "التفاصيل": 4672,
      "##ويلة": 4673,
      "بالل": 4674,
      "اقتص": 4675,
      "##055": 4676,
      "والاد": 4677,
      "السب": 4678,
      "ابناء": 4679,
      "المقبل": 4680,
      "زيارة": 4681,
      "اطلاق": 4682,
      "التخص": 4683,
      "البعض": 4684,
      "اعتلال": 4685,
      "##ناية": 4686,
      "والمح": 4687,
      "اسباب": 4688,
      "مظ": 4689,
      "وسايل": 4690,
      "##ينيا": 4691,
      "تمكن": 4692,
      "يجوز": 4693,
      "لام": 4694,
      "فلما": 4695,
      "طالب": 4696,
      "##327": 4697,
      "حرب": 4698,
      "الوصول": 4699,
      "##قرار": 4700,
      "##ابية": 4701,
      "##قطع": 4702,
      "بلد": 4703,
      "##ايرة": 4704,
      "الشمس": 4705,
      "يعلم": 4706,
      "للاط": 4707,
      "##قلة": 4708,
      "##سيق": 4709,
      "cu": 4710,
      "##واز": 4711,
      "جهة": 4712,
      "يصل": 4713,
      "2019": 4714,
      "اختيار": 4715,
      "on": 4716,
      "##ديه": 4717,
      "##ديمة": 4718,
      "##ah": 4719,
      "كثيرة": 4720,
      "##7824": 4721,
      "removal": 4722,
      "##7824327": 4723,
      "وفق": 4724,
      "القض": 4725,
      "الاوروبي": 4726,
      "بالخ": 4727,
      "سود": 4728,
      "المخت": 4729,
      "##احث": 4730,
      "##وبا": 4731,
      "##راكز": 4732,
      "##وره": 4733,
      "##بعض": 4734,
      "تجد": 4735,
      "تغيير": 4736,
      "جمهورية": 4737,
      "طال": 4738,
      "##og": 4739,
      "الواقع": 4740,
      "##منى": 4741,
      "دروس": 4742,
      "القطاع": 4743,
      "دليل": 4744,
      "##اسبة": 4745,
      "النواب": 4746,
      "مان": 4747,
      "الصحية": 4748,
      "##ستر": 4749,
      "جمال": 4750,
      "يجعل": 4751,
      "تقرير": 4752,
      "##0557824327": 4753,
      "الرقم": 4754,
      "للغ": 4755,
      "فرنسا": 4756,
      "مصادر": 4757,
      "العلاقات": 4758,
      "مناط": 4759,
      "المواطنين": 4760,
      "الاوسط": 4761,
      "##بيت": 4762,
      "##بيد": 4763,
      "بالط": 4764,
      "علينا": 4765,
      "ويمكن": 4766,
      "##ادث": 4767,
      "خصوص": 4768,
      "الرسمي": 4769,
      "رو": 4770,
      "فس": 4771,
      "##تحانات": 4772,
      "en": 4773,
      "الادارية": 4774,
      "##قبال": 4775,
      "بالصور": 4776,
      "سبب": 4777,
      "لب": 4778,
      "وبال": 4779,
      "الرياضة": 4780,
      "حاليا": 4781,
      "##وجودة": 4782,
      "الاثاث": 4783,
      "الشمالية": 4784,
      "والمن": 4785,
      "قرية": 4786,
      "الاحداث": 4787,
      "لتصحيح": 4788,
      "##ياز": 4789,
      "رحمه": 4790,
      "معنا": 4791,
      "السلع": 4792,
      "التو": 4793,
      "المستقبل": 4794,
      "فهم": 4795,
      "الشعبية": 4796,
      "dub": 4797,
      "##يسة": 4798,
      "الرابعة": 4799,
      "##شطة": 4800,
      "##وتيوب": 4801,
      "العلماء": 4802,
      "##زياء": 4803,
      "التخصصي": 4804,
      "##نس": 4805,
      "اعلانات": 4806,
      "ويب": 4807,
      "وعند": 4808,
      "##ew": 4809,
      "المذ": 4810,
      "الشرطة": 4811,
      "التصميم": 4812,
      "##نيف": 4813,
      "العمر": 4814,
      "للك": 4815,
      "36": 4816,
      "ير": 4817,
      "##كلف": 4818,
      "##واف": 4819,
      "##ذين": 4820,
      "بشر": 4821,
      "تنفيذ": 4822,
      "الغذ": 4823,
      "##وارات": 4824,
      "##ومنين": 4825,
      "كي": 4826,
      "##اكيد": 4827,
      "##ـــــ": 4828,
      "اراد": 4829,
      "المرت": 4830,
      "الرسول": 4831,
      "##قوم": 4832,
      "##يمي": 4833,
      "قوة": 4834,
      "wh": 4835,
      "الجمعية": 4836,
      "وكالة": 4837,
      "نيك": 4838,
      "بحي": 4839,
      "نايب": 4840,
      "##eb": 4841,
      "البخ": 4842,
      "زراعة": 4843,
      "##ريبة": 4844,
      "للحصول": 4845,
      "##يره": 4846,
      "##ليب": 4847,
      "مناطق": 4848,
      "وعدم": 4849,
      "قضية": 4850,
      "ممن": 4851,
      "الخليج": 4852,
      "وتت": 4853,
      "فكان": 4854,
      "تقول": 4855,
      "##ced": 4856,
      "سر": 4857,
      "فلم": 4858,
      "##عود": 4859,
      "تحمل": 4860,
      "pl": 4861,
      "الامة": 4862,
      "مواد": 4863,
      "الدست": 4864,
      "الحمل": 4865,
      "السر": 4866,
      "بالله": 4867,
      "الارها": 4868,
      "ph": 4869,
      "جع": 4870,
      "اوروبا": 4871,
      "الابتد": 4872,
      "##ذن": 4873,
      "للا": 4874,
      "الفصل": 4875,
      "الموتمر": 4876,
      "الدعم": 4877,
      "الاية": 4878,
      "ليبيا": 4879,
      "35": 4880,
      "المقد": 4881,
      "وهذه": 4882,
      "خلي": 4883,
      "196": 4884,
      "##وجب": 4885,
      "الجهاز": 4886,
      "وجل": 4887,
      "##غات": 4888,
      "##بغي": 4889,
      "الحالي": 4890,
      "sh": 4891,
      "##ندي": 4892,
      "##ابس": 4893,
      "بتع": 4894,
      "##اطر": 4895,
      "الادب": 4896,
      "الارهاب": 4897,
      "امل": 4898,
      "شرق": 4899,
      "الجنوبية": 4900,
      "بطولة": 4901,
      "تونس": 4902,
      "dubai": 4903,
      "خرج": 4904,
      "ثنا": 4905,
      "محام": 4906,
      "##ونت": 4907,
      "cataracts": 4908,
      "ترد": 4909,
      "##ومان": 4910,
      "##افا": 4911,
      "##خم": 4912,
      "الفنية": 4913,
      "الوسط": 4914,
      "الجما": 4915,
      "برج": 4916,
      "##وسع": 4917,
      "تماما": 4918,
      "اعلى": 4919,
      "توق": 4920,
      "ومش": 4921,
      "النايب": 4922,
      "الاتفاق": 4923,
      "اجراء": 4924,
      "##روح": 4925,
      "اعد": 4926,
      "##افات": 4927,
      "السفر": 4928,
      "وتس": 4929,
      "البرلم": 4930,
      "##لالة": 4931,
      "قرن": 4932,
      "##ونات": 4933,
      "المادة": 4934,
      "الايام": 4935,
      "##عوك": 4936,
      "انته": 4937,
      "النظ": 4938,
      "رجال": 4939,
      "الوف": 4940,
      "##هـ": 4941,
      "محطة": 4942,
      "##انوية": 4943,
      "العاصمة": 4944,
      "##عاد": 4945,
      "جمعية": 4946,
      "##ضرورة": 4947,
      "الذات": 4948,
      "##جوم": 4949,
      "المكان": 4950,
      "ركن": 4951,
      "كرو": 4952,
      "القت": 4953,
      "شيخ": 4954,
      "السلطة": 4955,
      "المرض": 4956,
      "الاسعار": 4957,
      "العلمي": 4958,
      "##لان": 4959,
      "الاعلان": 4960,
      "##راحات": 4961,
      "##ـب": 4962,
      "##رفض": 4963,
      "##رويد": 4964,
      "نب": 4965,
      "سما": 4966,
      "والمت": 4967,
      "العملية": 4968,
      "##ment": 4969,
      "المشاهدات": 4970,
      "مدة": 4971,
      "اعلنت": 4972,
      "الجسم": 4973,
      "الارد": 4974,
      "الحركة": 4975,
      "التقنية": 4976,
      "علوم": 4977,
      "شروط": 4978,
      "ارس": 4979,
      "صغيرة": 4980,
      "##كاتب": 4981,
      "ظهر": 4982,
      "الكلام": 4983,
      "فم": 4984,
      "##قلت": 4985,
      "انشاء": 4986,
      "الاض": 4987,
      "مقالات": 4988,
      "التالية": 4989,
      "وله": 4990,
      "وصول": 4991,
      "ومس": 4992,
      "جام": 4993,
      "##ــــــ": 4994,
      "وفقا": 4995,
      "زاير": 4996,
      "##اربة": 4997,
      "ستار": 4998,
      "الحزب": 4999,
      "##فاف": 5000,
      "بيز": 5001,
      "القناة": 5002,
      "سات": 5003,
      "لكي": 5004,
      "القر": 5005,
      "##افر": 5006,
      "رك": 5007,
      "للام": 5008,
      "دراسة": 5009,
      "انط": 5010,
      "المبا": 5011,
      "نصر": 5012,
      "كاملة": 5013,
      "بهم": 5014,
      "الاعلانات": 5015,
      "الطعام": 5016,
      "قطع": 5017,
      "بهذه": 5018,
      "##زوج": 5019,
      "##غر": 5020,
      "الرابع": 5021,
      "القرار": 5022,
      "تحديد": 5023,
      "الحقوق": 5024,
      "متم": 5025,
      "لاف": 5026,
      "سوال": 5027,
      "وعلاجها": 5028,
      "##ut": 5029,
      "الكاتب": 5030,
      "ip": 5031,
      "##لبية": 5032,
      "##كلات": 5033,
      "##يلم": 5034,
      "ابا": 5035,
      "السف": 5036,
      "الاصل": 5037,
      "##حيط": 5038,
      "قصة": 5039,
      "الدورة": 5040,
      "لمعا": 5041,
      "لغة": 5042,
      "##ورى": 5043,
      "الشرقية": 5044,
      "والمش": 5045,
      "والار": 5046,
      "مدرسة": 5047,
      "اقسام": 5048,
      "تناول": 5049,
      "واشار": 5050,
      "##خصوص": 5051,
      "وذكر": 5052,
      "قيمة": 5053,
      "وو": 5054,
      "##اعم": 5055,
      "##وهات": 5056,
      "##ناس": 5057,
      "اسماء": 5058,
      "رواه": 5059,
      "تقييم": 5060,
      "ارسل": 5061,
      "رغبت": 5062,
      "##شاط": 5063,
      "##واقف": 5064,
      "ياتي": 5065,
      "ندعوك": 5066,
      "والمس": 5067,
      "اسماعيل": 5068,
      "بواس": 5069,
      "##كرم": 5070,
      "البريد": 5071,
      "الاقليم": 5072,
      "##وذ": 5073,
      "##اهل": 5074,
      "الحس": 5075,
      "الطي": 5076,
      "##عددة": 5077,
      "ارج": 5078,
      "الطاقة": 5079,
      "الارتباط": 5080,
      "تاج": 5081,
      "شان": 5082,
      "##ناق": 5083,
      "مليار": 5084,
      "بسي": 5085,
      "الاقتصادي": 5086,
      "اعداد": 5087,
      "تشكيل": 5088,
      "##ul": 5089,
      "الليل": 5090,
      "##الجة": 5091,
      "فات": 5092,
      "الدمعية": 5093,
      "حماية": 5094,
      "قاي": 5095,
      "##درية": 5096,
      "مسي": 5097,
      "لديك": 5098,
      "فاع": 5099,
      "انتاج": 5100,
      "##تماد": 5101,
      "صلاة": 5102,
      "كول": 5103,
      "عشرة": 5104,
      "تاثير": 5105,
      "##تراك": 5106,
      "##خيص": 5107,
      "##رويج": 5108,
      "وجهة": 5109,
      "##يزم": 5110,
      "المسلم": 5111,
      "يقال": 5112,
      "##صلحة": 5113,
      "##ريمة": 5114,
      "قصص": 5115,
      "حفظ": 5116,
      "الاخير": 5117,
      "الاميركية": 5118,
      "لين": 5119,
      "##الغ": 5120,
      "الشرعية": 5121,
      "##ويتر": 5122,
      "بالض": 5123,
      "الخامس": 5124,
      "صار": 5125,
      "فور": 5126,
      "##تاح": 5127,
      "شاء": 5128,
      "تصل": 5129,
      "قيام": 5130,
      "الفكر": 5131,
      "سلمان": 5132,
      "نست": 5133,
      "القول": 5134,
      "للان": 5135,
      "بمناسبة": 5136,
      "اليون": 5137,
      "##11": 5138,
      "يعت": 5139,
      "التعليقات": 5140,
      "##ضى": 5141,
      "لمعاينة": 5142,
      "الفرنسي": 5143,
      "داعش": 5144,
      "اولى": 5145,
      "كار": 5146,
      "فصل": 5147,
      "نح": 5148,
      "##اصر": 5149,
      "الابد": 5150,
      "##ورك": 5151,
      "##يوما": 5152,
      "لتن": 5153,
      "مكة": 5154,
      "للعين": 5155,
      "تعتبر": 5156,
      "الغربية": 5157,
      "##وايد": 5158,
      "كرة": 5159,
      "شباب": 5160,
      "انتها": 5161,
      "##الق": 5162,
      "##ندا": 5163,
      "##بور": 5164,
      "##ديدا": 5165,
      "تفاصيل": 5166,
      "##خرج": 5167,
      "بواسطة": 5168,
      "والتعليم": 5169,
      "موك": 5170,
      "مصدر": 5171,
      "##زاب": 5172,
      "لمع": 5173,
      "منا": 5174,
      "مطب": 5175,
      "##يسى": 5176,
      "بدات": 5177,
      "اخرج": 5178,
      "قلي": 5179,
      "مسلسلات": 5180,
      "##ers": 5181,
      "ميل": 5182,
      "الكون": 5183,
      "##زاء": 5184,
      "##اشق": 5185,
      "لط": 5186,
      "الاتصالات": 5187,
      "ادم": 5188,
      "##هام": 5189,
      "##صلة": 5190,
      "شهادة": 5191,
      "##اتهم": 5192,
      "##ضير": 5193,
      "محل": 5194,
      "المجاني": 5195,
      "نصف": 5196,
      "تعبر": 5197,
      "الاسد": 5198,
      "موقف": 5199,
      "انفس": 5200,
      "سجل": 5201,
      "oper": 5202,
      "صباحا": 5203,
      "غيره": 5204,
      "والانت": 5205,
      "زيد": 5206,
      "والتن": 5207,
      "ex": 5208,
      "الروح": 5209,
      "##لاين": 5210,
      "مثلا": 5211,
      "ديكورات": 5212,
      "صناعة": 5213,
      "##وارد": 5214,
      "بزي": 5215,
      "##ليس": 5216,
      "##ثق": 5217,
      "##ندوق": 5218,
      "##ياج": 5219,
      "##قته": 5220,
      "الضغط": 5221,
      "##ولى": 5222,
      "لجميع": 5223,
      "الثقافة": 5224,
      "##نيات": 5225,
      "##طح": 5226,
      "اعلم": 5227,
      "رش": 5228,
      "رفض": 5229,
      "##اشات": 5230,
      "وانه": 5231,
      "نقطة": 5232,
      "##راتيجية": 5233,
      "سوى": 5234,
      "##زال": 5235,
      "##حيب": 5236,
      "شاهد": 5237,
      "وحدة": 5238,
      "الطرق": 5239,
      "خبر": 5240,
      "المانيا": 5241,
      "ضرورة": 5242,
      "المبلغ": 5243,
      "##نون": 5244,
      "##لبة": 5245,
      "##ناول": 5246,
      "جميعا": 5247,
      "تستطيع": 5248,
      "يحمل": 5249,
      "امريكا": 5250,
      "##جان": 5251,
      "الصحي": 5252,
      "##دير": 5253,
      "كس": 5254,
      "##ure": 5255,
      "البق": 5256,
      "العراقي": 5257,
      "للص": 5258,
      "وابن": 5259,
      "محافظ": 5260,
      "المنتخب": 5261,
      "المعد": 5262,
      "نمو": 5263,
      "يحيى": 5264,
      "الجزء": 5265,
      "الموت": 5266,
      "برا": 5267,
      "##حاء": 5268,
      "اجتماع": 5269,
      "اقرا": 5270,
      "##جين": 5271,
      "##ob": 5272,
      "دمشق": 5273,
      "الاكثر": 5274,
      "##يمن": 5275,
      "##ضب": 5276,
      "##اخر": 5277,
      "بيزو": 5278,
      "ضم": 5279,
      "operation": 5280,
      "الاعلى": 5281,
      "الافلام": 5282,
      "الفساد": 5283,
      "##ce": 5284,
      "##ريت": 5285,
      "الايط": 5286,
      "اهداف": 5287,
      "تشرين": 5288,
      "للخ": 5289,
      "المشروع": 5290,
      "فرض": 5291,
      "المرج": 5292,
      "##ap": 5293,
      "##جماتيزم": 5294,
      "التعليمية": 5295,
      "ويس": 5296,
      "الاستجماتيزم": 5297,
      "موتمر": 5298,
      "ماليز": 5299,
      "الدينية": 5300,
      "ديوان": 5301,
      "##اشة": 5302,
      "الاخرين": 5303,
      "الرابط": 5304,
      "يحدث": 5305,
      "##ـن": 5306,
      "رواية": 5307,
      "للو": 5308,
      "##زق": 5309,
      "البداية": 5310,
      "##حاق": 5311,
      "##ess": 5312,
      "##اطي": 5313,
      "جلب": 5314,
      "بحسب": 5315,
      "##دون": 5316,
      "##شاف": 5317,
      "القضاء": 5318,
      "المدير": 5319,
      "اللاعب": 5320,
      "النقل": 5321,
      "##بيلة": 5322,
      "##ليك": 5323,
      "##لمي": 5324,
      "##شنطن": 5325,
      "قامت": 5326,
      "فج": 5327,
      "##روة": 5328,
      "لعمل": 5329,
      "حجم": 5330,
      "الامنية": 5331,
      "##مم": 5332,
      "##اطع": 5333,
      "قالوا": 5334,
      "هدف": 5335,
      "##ـت": 5336,
      "##قس": 5337,
      "بحيث": 5338,
      "التنمية": 5339,
      "نفسها": 5340,
      "وبا": 5341,
      "##عيم": 5342,
      "الحض": 5343,
      "منزل": 5344,
      "سياسة": 5345,
      "تويتر": 5346,
      "المصدر": 5347,
      "المركزي": 5348,
      "الوضع": 5349,
      "البيانات": 5350,
      "الخير": 5351,
      "المدرسة": 5352,
      "##بهة": 5353,
      "المحد": 5354,
      "۩۞۩": 5355,
      "وقع": 5356,
      "الانسانية": 5357,
      "سيارة": 5358,
      "معها": 5359,
      "قي": 5360,
      "##ابقات": 5361,
      "##اوز": 5362,
      "##شارك": 5363,
      "السابقة": 5364,
      "القيام": 5365,
      "##اليف": 5366,
      "طرق": 5367,
      "32": 5368,
      "وسهلا": 5369,
      "الحديثة": 5370,
      "بوت": 5371,
      "الطلب": 5372,
      "to": 5373,
      "مصطفى": 5374,
      "ومح": 5375,
      "غرف": 5376,
      "33": 5377,
      "##يوماكس": 5378,
      "ليت": 5379,
      "60": 5380,
      "ومل": 5381,
      "وراء": 5382,
      "الدراسات": 5383,
      "##ax": 5384,
      "##ادمة": 5385,
      "الرجال": 5386,
      "##ذاب": 5387,
      "الحدود": 5388,
      "cent": 5389,
      "##ارضة": 5390,
      "وقالت": 5391,
      "وتص": 5392,
      "سف": 5393,
      "دوري": 5394,
      "احسن": 5395,
      "جان": 5396,
      "ويست": 5397,
      "البخاري": 5398,
      "الجنة": 5399,
      "يض": 5400,
      "##علم": 5401,
      "جاه": 5402,
      "مجم": 5403,
      "##سه": 5404,
      "الاساسية": 5405,
      "فرصة": 5406,
      "التعامل": 5407,
      "والخدمات": 5408,
      "المنتجات": 5409,
      "فروض": 5410,
      "##ماك": 5411,
      "ربما": 5412,
      "الاسم": 5413,
      "##كانية": 5414,
      "الشعبي": 5415,
      "يحتاج": 5416,
      "والاح": 5417,
      "##ech": 5418,
      "المحلي": 5419,
      "##ريدة": 5420,
      "##ثبت": 5421,
      "##كب": 5422,
      "لماذا": 5423,
      "عس": 5424,
      "المومنين": 5425,
      "الوح": 5426,
      "تحدث": 5427,
      "اليس": 5428,
      "##وست": 5429,
      "المسجد": 5430,
      "##رايم": 5431,
      "والات": 5432,
      "##نقل": 5433,
      "بلاد": 5434,
      "مجاني": 5435,
      "##فادة": 5436,
      "والز": 5437,
      "بهدف": 5438,
      "##يله": 5439,
      "197": 5440,
      "منظمة": 5441,
      "##فيف": 5442,
      "البشرية": 5443,
      "للاطفال": 5444,
      "الموسسات": 5445,
      "##علقة": 5446,
      "احب": 5447,
      "ترغب": 5448,
      "عزيز": 5449,
      "##يده": 5450,
      "بتاريخ": 5451,
      "##امه": 5452,
      "عبارة": 5453,
      "##if": 5454,
      "##ist": 5455,
      "##ظار": 5456,
      "الكبرى": 5457,
      "تحتوي": 5458,
      "75": 5459,
      "##جهزه": 5460,
      "الاهلي": 5461,
      "اجمل": 5462,
      "معرفة": 5463,
      "##ذل": 5464,
      "مشكلة": 5465,
      "##هرت": 5466,
      "##وقات": 5467,
      "##واجه": 5468,
      "المدني": 5469,
      "نه": 5470,
      "يشرف": 5471,
      "يرجى": 5472,
      "كلا": 5473,
      "الرك": 5474,
      "العسكري": 5475,
      "فرع": 5476,
      "##ازي": 5477,
      "المعرفة": 5478,
      "سنت": 5479,
      "##اديث": 5480,
      "مقد": 5481,
      "##داع": 5482,
      "المسوولية": 5483,
      "##خاذ": 5484,
      "الاجنبية": 5485,
      "##قدير": 5486,
      "##ابلة": 5487,
      "##ect": 5488,
      "##فاوض": 5489,
      "مجلة": 5490,
      "شم": 5491,
      "المري": 5492,
      "de": 5493,
      "مرحلة": 5494,
      "##ايين": 5495,
      "##ind": 5496,
      "كش": 5497,
      "اصب": 5498,
      "يستطيع": 5499,
      "نا": 5500,
      "اربعة": 5501,
      "##ادى": 5502,
      "النوع": 5503,
      "كله": 5504,
      "##اينا": 5505,
      "امين": 5506,
      "سيتم": 5507,
      "علاقة": 5508,
      "رمز": 5509,
      "##ودا": 5510,
      "سياسية": 5511,
      "##رجات": 5512,
      "الاحمر": 5513,
      "##نايية": 5514,
      "سبحانه": 5515,
      "حفل": 5516,
      "امراة": 5517,
      "الصحيح": 5518,
      "ارسال": 5519,
      "##هاج": 5520,
      "##اصل": 5521,
      "الاسباب": 5522,
      "ولن": 5523,
      "##براء": 5524,
      "ابدا": 5525,
      "الته": 5526,
      "##قديم": 5527,
      "يودي": 5528,
      "طويلة": 5529,
      "##طاليا": 5530,
      "استط": 5531,
      "##ابقة": 5532,
      "##ربات": 5533,
      "النفط": 5534,
      "##قيقي": 5535,
      "##box": 5536,
      "ليزر": 5537,
      "المنشورة": 5538,
      "الدراسة": 5539,
      "##بنى": 5540,
      "##عمة": 5541,
      "##واية": 5542,
      "حوالي": 5543,
      "##طيط": 5544,
      "##طلع": 5545,
      "متابعة": 5546,
      "##ولد": 5547,
      "##وافق": 5548,
      "بدء": 5549,
      "الجميل": 5550,
      "##وته": 5551,
      "مجانا": 5552,
      "عض": 5553,
      "ابتد": 5554,
      "مشاريع": 5555,
      "صلاحية": 5556,
      "حجر": 5557,
      "##عاء": 5558,
      "##غرب": 5559,
      "المض": 5560,
      "سمع": 5561,
      "الحقيقة": 5562,
      "مهمة": 5563,
      "##out": 5564,
      "ايل": 5565,
      "سا": 5566,
      "لاحد": 5567,
      "التجارة": 5568,
      "tr": 5569,
      "العملات": 5570,
      "##ظمات": 5571,
      "143": 5572,
      "كلمات": 5573,
      "روية": 5574,
      "السياسة": 5575,
      "ورب": 5576,
      "الايمان": 5577,
      "##قاد": 5578,
      "كر": 5579,
      "فار": 5580,
      "لخ": 5581,
      "لاد": 5582,
      "حص": 5583,
      "كلها": 5584,
      "مهرجان": 5585,
      "تاس": 5586,
      "مساعد": 5587,
      "##وده": 5588,
      "##ريحات": 5589,
      "بلدية": 5590,
      "المعت": 5591,
      "##ظل": 5592,
      "واكد": 5593,
      "##شت": 5594,
      "للط": 5595,
      "##اتل": 5596,
      "المغربي": 5597,
      "الباحث": 5598,
      "ar": 5599,
      "##ارنة": 5600,
      "معنى": 5601,
      "التاس": 5602,
      "بنسبة": 5603,
      "نجاح": 5604,
      "##عن": 5605,
      "صنع": 5606,
      "طبيب": 5607,
      "قيم": 5608,
      "عهد": 5609,
      "الاجتماع": 5610,
      "ضع": 5611,
      "##وقت": 5612,
      "ليلة": 5613,
      "##جمالي": 5614,
      "##رمين": 5615,
      "وبالتالي": 5616,
      "##ناد": 5617,
      "نيوز": 5618,
      "نظم": 5619,
      "لكرة": 5620,
      "الاشخاص": 5621,
      "وقف": 5622,
      "العرض": 5623,
      "غرفة": 5624,
      "العهد": 5625,
      "##ريه": 5626,
      "الارش": 5627,
      "وقيل": 5628,
      "اختر": 5629,
      "برم": 5630,
      "موري": 5631,
      "##واه": 5632,
      "بب": 5633,
      "بطريقة": 5634,
      "شخصية": 5635,
      "##وزارة": 5636,
      "خصوصا": 5637,
      "الامراض": 5638,
      "تحتاج": 5639,
      "##ازة": 5640,
      "##اديمية": 5641,
      "يوتيوب": 5642,
      "الوزير": 5643,
      "الرسمية": 5644,
      "##فيد": 5645,
      "##خرا": 5646,
      "السير": 5647,
      "منع": 5648,
      "كف": 5649,
      "جور": 5650,
      "والتح": 5651,
      "الكات": 5652,
      "السادس": 5653,
      "##لاحظ": 5654,
      "##خال": 5655,
      "بغداد": 5656,
      "لدخول": 5657,
      "ساعات": 5658,
      "##قيقية": 5659,
      "السلطات": 5660,
      "##000": 5661,
      "الحكومية": 5662,
      "بتح": 5663,
      "مراج": 5664,
      "##ريبا": 5665,
      "ارق": 5666,
      "الوج": 5667,
      "##اين": 5668,
      "الطبيعية": 5669,
      "34": 5670,
      "##يقة": 5671,
      "الاقل": 5672,
      "##صالحة": 5673,
      "##كندرية": 5674,
      "##ندية": 5675,
      "الاحي": 5676,
      "تجربة": 5677,
      "قيادة": 5678,
      "جما": 5679,
      "الفقه": 5680,
      "النت": 5681,
      "السيارة": 5682,
      "غال": 5683,
      "##جاوز": 5684,
      "##ونية": 5685,
      "##شى": 5686,
      "##ue": 5687,
      "بالمشاركة": 5688,
      "التب": 5689,
      "اقامة": 5690,
      "سلسلة": 5691,
      "الاذ": 5692,
      "الذه": 5693,
      "الاوروبية": 5694,
      "الذكر": 5695,
      "بالاع": 5696,
      "وكيف": 5697,
      "##طنة": 5698,
      "تحويل": 5699,
      "القانونية": 5700,
      "والسيا": 5701,
      "cust": 5702,
      "##كره": 5703,
      "الازمة": 5704,
      "زمن": 5705,
      "##وفا": 5706,
      "كفار": 5707,
      "طبر": 5708,
      "ميد": 5709,
      "custom": 5710,
      "##لول": 5711,
      "عون": 5712,
      "الكبيرة": 5713,
      "يبحث": 5714,
      "##يوم": 5715,
      "هام": 5716,
      "حلول": 5717,
      "##ook": 5718,
      "غرب": 5719,
      "شقق": 5720,
      "العص": 5721,
      "بدر": 5722,
      "والمست": 5723,
      "##عزيز": 5724,
      "المنورة": 5725,
      "والعالم": 5726,
      "##pl": 5727,
      "الامين": 5728,
      "والر": 5729,
      "##50": 5730,
      "##ثيل": 5731,
      "توفر": 5732,
      "الدور": 5733,
      "be": 5734,
      "##لامي": 5735,
      "بتسجيل": 5736,
      "القديمة": 5737,
      "مملكة": 5738,
      "عج": 5739,
      "اصبحت": 5740,
      "##قطاع": 5741,
      "التطبيق": 5742,
      "##وضة": 5743,
      "ابرز": 5744,
      "##راقبة": 5745,
      "لض": 5746,
      "##قالة": 5747,
      "الصغيرة": 5748,
      "حن": 5749,
      "احداث": 5750,
      "المطب": 5751,
      "##غان": 5752,
      "بالص": 5753,
      "بتن": 5754,
      "الفرق": 5755,
      "##ومه": 5756,
      "الوجه": 5757,
      "##انيات": 5758,
      "##ــة": 5759,
      "حقيقة": 5760,
      "الاقت": 5761,
      "##راضي": 5762,
      "##فقة": 5763,
      "سق": 5764,
      "##صيل": 5765,
      "اعلام": 5766,
      "##اطة": 5767,
      "المدر": 5768,
      "يبدو": 5769,
      "تقل": 5770,
      "معين": 5771,
      "cl": 5772,
      "الاو": 5773,
      "الحال": 5774,
      "الثورة": 5775,
      "##اور": 5776,
      "##af": 5777,
      "ww": 5778,
      "اذن": 5779,
      "المجموعة": 5780,
      "حاول": 5781,
      "##ياجات": 5782,
      "##gle": 5783,
      "بعضهم": 5784,
      "الزواج": 5785,
      "مسوولية": 5786,
      "ايها": 5787,
      "الهاتف": 5788,
      "##صفات": 5789,
      "حملة": 5790,
      "طلاب": 5791,
      "الموسسة": 5792,
      "ممت": 5793,
      "الرياضيات": 5794,
      "الصيف": 5795,
      "مستعمل": 5796,
      "ماذا": 5797,
      "للعمل": 5798,
      "##سى": 5799,
      "اليد": 5800,
      "##شيخ": 5801,
      "المحكمة": 5802,
      "ترتيب": 5803,
      "جماعة": 5804,
      "السين": 5805,
      "وعم": 5806,
      "##جارة": 5807,
      "دقيقة": 5808,
      "باط": 5809,
      "قراءة": 5810,
      "مسب": 5811,
      "داود": 5812,
      "##صرف": 5813,
      "goo": 5814,
      "يستخدم": 5815,
      "المباراة": 5816,
      "الاميركي": 5817,
      "العروض": 5818,
      "العقل": 5819,
      "##زاز": 5820,
      "##th": 5821,
      "سمعت": 5822,
      "عرب": 5823,
      "بوك": 5824,
      "##غو": 5825,
      "##اخلي": 5826,
      "##ish": 5827,
      "star": 5828,
      "منز": 5829,
      "ومست": 5830,
      "واشنطن": 5831,
      "الزمن": 5832,
      "بالاس": 5833,
      "باسماء": 5834,
      "center": 5835,
      "##od": 5836,
      "##انيين": 5837,
      "منك": 5838,
      "السماء": 5839,
      "##قتها": 5840,
      "##برن": 5841,
      "بمح": 5842,
      "##ملف": 5843,
      "##راسة": 5844,
      "قيل": 5845,
      "الفور": 5846,
      "##30": 5847,
      "##يفرات": 5848,
      "##طى": 5849,
      "الرياضي": 5850,
      "المقاومة": 5851,
      "##وفي": 5852,
      "##اون": 5853,
      "الاسراييل": 5854,
      "##ربين": 5855,
      "العظيم": 5856,
      "ويح": 5857,
      "##اشقجي": 5858,
      "التالي": 5859,
      "الجانب": 5860,
      "الاستقلال": 5861,
      "توفير": 5862,
      "كبيرا": 5863,
      "الشحن": 5864,
      "##reat": 5865,
      "قضايا": 5866,
      "طول": 5867,
      "وشروحات": 5868,
      "2008": 5869,
      "الترا": 5870,
      "##بلس": 5871,
      "الردود": 5872,
      "##تون": 5873,
      "كنا": 5874,
      "الرغم": 5875,
      "##ream": 5876,
      "درهم": 5877,
      "للب": 5878,
      "##صرة": 5879,
      "جيد": 5880,
      "##اجر": 5881,
      "ابح": 5882,
      "بقي": 5883,
      "##قيم": 5884,
      "يشرفنا": 5885,
      "استمرار": 5886,
      "يدخل": 5887,
      "التون": 5888,
      "##كيه": 5889,
      "التك": 5890,
      "la": 5891,
      "يعود": 5892,
      "حض": 5893,
      "الدار": 5894,
      "بالان": 5895,
      "##ريبية": 5896,
      "تاي": 5897,
      "المدارس": 5898,
      "تعلن": 5899,
      "طبرجل": 5900,
      "الذهب": 5901,
      "الجوية": 5902,
      "اداء": 5903,
      "فضلا": 5904,
      "منتجات": 5905,
      "وهناك": 5906,
      "لكنه": 5907,
      "##قام": 5908,
      "سوداني": 5909,
      "##حقق": 5910,
      "ينبغي": 5911,
      "وبد": 5912,
      "توقع": 5913,
      "تحرير": 5914,
      "مقتل": 5915,
      "سكان": 5916,
      "##ناسب": 5917,
      "يظهر": 5918,
      "محاولة": 5919,
      "##لاص": 5920,
      "القضية": 5921,
      "الجودة": 5922,
      "زايرنا": 5923,
      "##زع": 5924,
      "سبق": 5925,
      "حدود": 5926,
      "جبل": 5927,
      "##ايهم": 5928,
      "يرى": 5929,
      "كوم": 5930,
      "38": 5931,
      "الاستش": 5932,
      "والمج": 5933,
      "التغ": 5934,
      "##صالات": 5935,
      "الانتاج": 5936,
      "يرت": 5937,
      "عاد": 5938,
      "##ine": 5939,
      "طرا": 5940,
      "تقنية": 5941,
      "بكم": 5942,
      "الديمقراطية": 5943,
      "ابل": 5944,
      "bl": 5945,
      "ايجاد": 5946,
      "ضغط": 5947,
      "##14": 5948,
      "الخصوص": 5949,
      "##ip": 5950,
      "السابع": 5951,
      "نط": 5952,
      "المهم": 5953,
      "القوى": 5954,
      "##ثال": 5955,
      "يوميا": 5956,
      "التابعة": 5957,
      "يجد": 5958,
      "##عادة": 5959,
      "##بلة": 5960,
      "الوزارة": 5961,
      "##زمات": 5962,
      "البنك": 5963,
      "فعاليات": 5964,
      "تدخل": 5965,
      "قايلا": 5966,
      "والاب": 5967,
      "##فعة": 5968,
      "الياس": 5969,
      "بعدما": 5970,
      "##درات": 5971,
      "##ايز": 5972,
      "تظهر": 5973,
      "النهار": 5974,
      "خلفيات": 5975,
      "العدد": 5976,
      "النو": 5977,
      "##12": 5978,
      "##ذيب": 5979,
      "الضرايب": 5980,
      "##راليا": 5981,
      "عناصر": 5982,
      "##اااا": 5983,
      "##ستاني": 5984,
      "اتحاد": 5985,
      "ولما": 5986,
      "##اتم": 5987,
      "الحالة": 5988,
      "بقلم": 5989,
      "معت": 5990,
      "##ack": 5991,
      "##لاء": 5992,
      "عايلة": 5993,
      "الخامسة": 5994,
      "الاعد": 5995,
      "مقت": 5996,
      "المتعلقة": 5997,
      "المحم": 5998,
      "كيل": 5999,
      "طف": 6000,
      "##tr": 6001,
      "الحوث": 6002,
      "نم": 6003,
      "اظ": 6004,
      "وترك": 6005,
      "##بطة": 6006,
      "احكام": 6007,
      "##شية": 6008,
      "العلاقة": 6009,
      "قرب": 6010,
      "مهم": 6011,
      "##ice": 6012,
      "##برنامج": 6013,
      "مرات": 6014,
      "##باع": 6015,
      "خمسة": 6016,
      "التجميل": 6017,
      "تي": 6018,
      "سلام": 6019,
      "##ex": 6020,
      "ولاية": 6021,
      "التسوق": 6022,
      "الصيد": 6023,
      "توظيف": 6024,
      "##غراف": 6025,
      "مواجهة": 6026,
      "الصد": 6027,
      "مجالات": 6028,
      "##دخل": 6029,
      "مباريات": 6030,
      "خاشقجي": 6031,
      "مهما": 6032,
      "##شرق": 6033,
      "37": 6034,
      "تشغيل": 6035,
      "##ايلات": 6036,
      "##ديقة": 6037,
      "##بياء": 6038,
      "محفو": 6039,
      "الاسراييلية": 6040,
      "افراد": 6041,
      "##ud": 6042,
      "فهذا": 6043,
      "##ديان": 6044,
      "خال": 6045,
      "##iv": 6046,
      "##وليفات": 6047,
      "البيع": 6048,
      "تنز": 6049,
      "الابصار": 6050,
      "500": 6051,
      "حرف": 6052,
      "المجم": 6053,
      "مدريد": 6054,
      "##شام": 6055,
      "المشرو": 6056,
      "##ياد": 6057,
      "حاج": 6058,
      "##كتاب": 6059,
      "جيدا": 6060,
      "##قوب": 6061,
      "##صم": 6062,
      "موظ": 6063,
      "اماكن": 6064,
      "الرجاء": 6065,
      "المكر": 6066,
      "اصدار": 6067,
      "السبب": 6068,
      "##ندسين": 6069,
      "مجرد": 6070,
      "##ايير": 6071,
      "##عله": 6072,
      "المحافظة": 6073,
      "باد": 6074,
      "الوث": 6075,
      "تقم": 6076,
      "ابطال": 6077,
      "فكرة": 6078,
      "والى": 6079,
      "الادبية": 6080,
      "البيية": 6081,
      "سالم": 6082,
      "##رافق": 6083,
      "بحق": 6084,
      "##هداء": 6085,
      "مطبخ": 6086,
      "البناء": 6087,
      "صل": 6088,
      "وايضا": 6089,
      "تجاه": 6090,
      "الموجودة": 6091,
      "هن": 6092,
      "والمنت": 6093,
      "نشاط": 6094,
      "الكشف": 6095,
      "للمس": 6096,
      "وبح": 6097,
      "جودة": 6098,
      "عقارات": 6099,
      "لعد": 6100,
      "اخبرنا": 6101,
      "##غا": 6102,
      "##علوم": 6103,
      "##هيون": 6104,
      "للاش": 6105,
      "##one": 6106,
      "معهم": 6107,
      "مجد": 6108,
      "##ونها": 6109,
      "والتق": 6110,
      "##نوان": 6111,
      "##مرة": 6112,
      "للتع": 6113,
      "العراقية": 6114,
      "غس": 6115,
      "التعب": 6116,
      "ورش": 6117,
      "نسخة": 6118,
      "النادي": 6119,
      "نزل": 6120,
      "ظهور": 6121,
      "لاعب": 6122,
      "##ربوية": 6123,
      "الجنوب": 6124,
      "التنظيم": 6125,
      "التحالف": 6126,
      "عيسى": 6127,
      "ستي": 6128,
      "نسب": 6129,
      "##واطر": 6130,
      "ضبط": 6131,
      "خلالها": 6132,
      "والسلام": 6133,
      "ففي": 6134,
      "مناف": 6135,
      "فضل": 6136,
      "##صاب": 6137,
      "الساح": 6138,
      "##هى": 6139,
      "الشام": 6140,
      "حر": 6141,
      "##رتيب": 6142,
      "فوز": 6143,
      "رايعة": 6144,
      "##ريج": 6145,
      "يحب": 6146,
      "ايجاب": 6147,
      "يعيش": 6148,
      "الخض": 6149,
      "القصص": 6150,
      "ويل": 6151,
      "الاما": 6152,
      "مشيرا": 6153,
      "صدر": 6154,
      "المدنية": 6155,
      "القيادة": 6156,
      "##ياط": 6157,
      "سان": 6158,
      "ابت": 6159,
      "##كه": 6160,
      "يمثل": 6161,
      "www": 6162,
      "راى": 6163,
      "##ناع": 6164,
      "مرو": 6165,
      "الترفيه": 6166,
      "سفر": 6167,
      "ويد": 6168,
      "القديم": 6169,
      "##ورين": 6170,
      "##مارسة": 6171,
      "##سوارات": 6172,
      "##يمات": 6173,
      "https": 6174,
      "الصحفي": 6175,
      "البريطانية": 6176,
      "مير": 6177,
      "##وسسات": 6178,
      "بريط": 6179,
      "التشغيل": 6180,
      "##رييات": 6181,
      "الرق": 6182,
      "التدريب": 6183,
      "التجمع": 6184,
      "راب": 6185,
      "انحاء": 6186,
      "اللواء": 6187,
      "قايد": 6188,
      "الطريقة": 6189,
      "تحاول": 6190,
      "الاستثمار": 6191,
      "تركيب": 6192,
      "يوكد": 6193,
      "google": 6194,
      "الباط": 6195,
      "سيل": 6196,
      "تملك": 6197,
      "##تبار": 6198,
      "##صدق": 6199,
      "روى": 6200,
      "سانت": 6201,
      "التركي": 6202,
      "روبية": 6203,
      "ومنها": 6204,
      "اطباء": 6205,
      "عبيد": 6206,
      "التركية": 6207,
      "الجو": 6208,
      "ازمة": 6209,
      "##الس": 6210,
      "كوريا": 6211,
      "والاف": 6212,
      "تطبيقات": 6213,
      "ثابت": 6214,
      "الهندسة": 6215,
      "ويقول": 6216,
      "يخرج": 6217,
      "اسحاق": 6218,
      "موعد": 6219,
      "المار": 6220,
      "المباشر": 6221,
      "لمس": 6222,
      "خمس": 6223,
      "شوون": 6224,
      "سيتي": 6225,
      "##امت": 6226,
      "طيور": 6227,
      "جون": 6228,
      "##يقى": 6229,
      "رعاية": 6230,
      "الكرة": 6231,
      "البيان": 6232,
      "جعفر": 6233,
      "السويس": 6234,
      "##طط": 6235,
      "##وامل": 6236,
      "fr": 6237,
      "مدار": 6238,
      "الرياض0557824327": 6239,
      "والعمل": 6240,
      "##اجل": 6241,
      "عنهم": 6242,
      "تعليق": 6243,
      "##ith": 6244,
      "واحت": 6245,
      "48": 6246,
      "تجاوز": 6247,
      "##فيض": 6248,
      "##يفون": 6249,
      "يحصل": 6250,
      "##فه": 6251,
      "يهم": 6252,
      "الاسود": 6253,
      "الجزيرة": 6254,
      "##40": 6255,
      "النشر": 6256,
      "اليمني": 6257,
      "##مع": 6258,
      "العالي": 6259,
      "بمدينة": 6260,
      "العودة": 6261,
      "الكل": 6262,
      "مشاركات": 6263,
      "الملفات": 6264,
      "اصلاح": 6265,
      "نقدم": 6266,
      "el": 6267,
      "المدن": 6268,
      "هار": 6269,
      "خز": 6270,
      "##ويم": 6271,
      "ونت": 6272,
      "##كسر": 6273,
      "المسلسل": 6274,
      "##and": 6275,
      "##بيين": 6276,
      "الجاري": 6277,
      "الواحد": 6278,
      "البرلمان": 6279,
      "يومين": 6280,
      "عت": 6281,
      "عنده": 6282,
      "##حقات": 6283,
      "مطعم": 6284,
      "##لوب": 6285,
      "طبية": 6286,
      "##وحيد": 6287,
      "المتوسط": 6288,
      "##ايرات": 6289,
      "ذكره": 6290,
      "محاض": 6291,
      "الحيوانات": 6292,
      "باق": 6293,
      "النز": 6294,
      "زرع": 6295,
      "نجد": 6296,
      "صاح": 6297,
      "ايدي": 6298,
      "زين": 6299,
      "تبدا": 6300,
      "##اوى": 6301,
      "##وهم": 6302,
      "ميزات": 6303,
      "اضغط": 6304,
      "البش": 6305,
      "انق": 6306,
      "treat": 6307,
      "##شلونة": 6308,
      "##ـــــــ": 6309,
      "الصناعية": 6310,
      "هكذا": 6311,
      "الجمع": 6312,
      "اليك": 6313,
      "##واح": 6314,
      "بالدخول": 6315,
      "##طيل": 6316,
      "المنزلية": 6317,
      "80": 6318,
      "##حدد": 6319,
      "البرت": 6320,
      "##شياء": 6321,
      "فيت": 6322,
      "نقوم": 6323,
      "##قيب": 6324,
      "treatment": 6325,
      "مقا": 6326,
      "رسايل": 6327,
      "كور": 6328,
      "حصول": 6329,
      "وابو": 6330,
      "كهرب": 6331,
      "##ok": 6332,
      "قرنية": 6333,
      "الكر": 6334,
      "يقع": 6335,
      "##فرات": 6336,
      "واث": 6337,
      "انسان": 6338,
      "هـ": 6339,
      "الصوتيات": 6340,
      "كريم": 6341,
      "بانها": 6342,
      "المستخدمين": 6343,
      "علما": 6344,
      "##يقية": 6345,
      "القاضي": 6346,
      "اصحابها": 6347,
      "المسلحة": 6348,
      "يرد": 6349,
      "##حرك": 6350,
      "##وفة": 6351,
      "تجارة": 6352,
      "التراث": 6353,
      "حز": 6354,
      "النمو": 6355,
      "##جرد": 6356,
      "فين": 6357,
      "##ندن": 6358,
      "انسداد": 6359,
      "2007": 6360,
      "مقر": 6361,
      "اقرب": 6362,
      "الثانوية": 6363,
      "الاداري": 6364,
      "يقت": 6365,
      "التقلي": 6366,
      "proced": 6367,
      "العصر": 6368,
      "ورييس": 6369,
      "الرسالة": 6370,
      "القمر": 6371,
      "هر": 6372,
      "للغاية": 6373,
      "خلاف": 6374,
      "اذار": 6375,
      "الشبكيه": 6376,
      "##18": 6377,
      "الصحافة": 6378,
      "العناية": 6379,
      "##ثور": 6380,
      "##ايك": 6381,
      "##ونيا": 6382,
      "##اجي": 6383,
      "المقت": 6384,
      "المشترك": 6385,
      "بريد": 6386,
      "الهدف": 6387,
      "كلم": 6388,
      "صع": 6389,
      "فندق": 6390,
      "معينة": 6391,
      "##كاوي": 6392,
      "السويد": 6393,
      "بينها": 6394,
      "forum": 6395,
      "الحمد": 6396,
      "لاس": 6397,
      "تقارير": 6398,
      "السما": 6399,
      "ياس": 6400,
      "##الله": 6401,
      "ذهب": 6402,
      "##ort": 6403,
      "وطن": 6404,
      "متعددة": 6405,
      "بعنوان": 6406,
      "##ازل": 6407,
      "اربع": 6408,
      "للسل": 6409,
      "by": 6410,
      "للوصول": 6411,
      "##شين": 6412,
      "##ايجار": 6413,
      "ويتم": 6414,
      "ويش": 6415,
      "رام": 6416,
      "الايراني": 6417,
      "حاجة": 6418,
      "##ولين": 6419,
      "##شاب": 6420,
      "توص": 6421,
      "شارك": 6422,
      "الاصد": 6423,
      "شارع": 6424,
      "##كومة": 6425,
      "##احية": 6426,
      "بينهما": 6427,
      "قلوب": 6428,
      "النبات": 6429,
      "يعقوب": 6430,
      "فخ": 6431,
      "المتب": 6432,
      "ترى": 6433,
      "طرح": 6434,
      "الروسية": 6435,
      "الروسي": 6436,
      "##سفة": 6437,
      "##17": 6438,
      "صغير": 6439,
      "التوليفات": 6440,
      "اموال": 6441,
      "قوية": 6442,
      "##رفي": 6443,
      "الطبيعي": 6444,
      "ثالث": 6445,
      "اجتماعية": 6446,
      "بزيارة": 6447,
      "الاكبر": 6448,
      "مجانية": 6449,
      "خس": 6450,
      "##انع": 6451,
      "##وسطة": 6452,
      "##ربع": 6453,
      "##كى": 6454,
      "الانف": 6455,
      "المغربية": 6456,
      "مين": 6457,
      "##ارى": 6458,
      "##وفير": 6459,
      "العبد": 6460,
      "تداول": 6461,
      "بالضغط": 6462,
      "الكاتـب": 6463,
      "##تو": 6464,
      "تتعلق": 6465,
      "استغ": 6466,
      "##ونيس": 6467,
      "بعدها": 6468,
      "وكيل": 6469,
      "الكرام": 6470,
      "لاحظ": 6471,
      "##حول": 6472,
      "مسالة": 6473,
      "للتن": 6474,
      "لفت": 6475,
      "الجنس": 6476,
      "تعزيز": 6477,
      "واسعة": 6478,
      "##tv": 6479,
      "وفر": 6480,
      "ممار": 6481,
      "يقل": 6482,
      "المسيح": 6483,
      "توزيع": 6484,
      "##الفة": 6485,
      "##نام": 6486,
      "اري": 6487,
      "جدة": 6488,
      "##19": 6489,
      "القايمة": 6490,
      "السوال": 6491,
      "قواعد": 6492,
      "ملابس": 6493,
      "بنك": 6494,
      "السعر": 6495,
      "الجامعات": 6496,
      "ميت": 6497,
      "تساعد": 6498,
      "##olog": 6499,
      "الراس": 6500,
      "باح": 6501,
      "الفيلم": 6502,
      "70": 6503,
      "منتدي": 6504,
      "منصور": 6505,
      "والثق": 6506,
      "##باحث": 6507,
      "##وعه": 6508,
      "قاعدة": 6509,
      "بوابة": 6510,
      "مياه": 6511,
      "فهل": 6512,
      "39": 6513,
      "سيت": 6514,
      "ماليزيا": 6515,
      "شحن": 6516,
      "شار": 6517,
      "واوضح": 6518,
      "عادل": 6519,
      "واختبارات": 6520,
      "##طنبول": 6521,
      "مقدمة": 6522,
      "اسيا": 6523,
      "##كلم": 6524,
      "بدلا": 6525,
      "قصر": 6526,
      "تقريبا": 6527,
      "حواء": 6528,
      "مواطن": 6529,
      "نار": 6530,
      "الكهربايية": 6531,
      "ولل": 6532,
      "التحرير": 6533,
      "##متع": 6534,
      "##وند": 6535,
      "الاراضي": 6536,
      "قريبا": 6537,
      "##رفية": 6538,
      "ايطاليا": 6539,
      "##ضيف": 6540,
      "ترا": 6541,
      "الحشرات": 6542,
      "القادم": 6543,
      "تغير": 6544,
      "##جهات": 6545,
      "اللح": 6546,
      "متر": 6547,
      "##سلوب": 6548,
      "وقوله": 6549,
      "##ارته": 6550,
      "بصورة": 6551,
      "وخاصة": 6552,
      "##خفاض": 6553,
      "فرق": 6554,
      "الجهات": 6555,
      "##df": 6556,
      "التحكم": 6557,
      "نفسك": 6558,
      "كذا": 6559,
      "شاب": 6560,
      "الوحيد": 6561,
      "شروحات": 6562,
      "يساعد": 6563,
      "##حته": 6564,
      "كيوماكس": 6565,
      "##خلق": 6566,
      "الملا": 6567,
      "انجاز": 6568,
      "اسلامية": 6569,
      "##درس": 6570,
      "والاجتما": 6571,
      "الخطاب": 6572,
      "سيما": 6573,
      "##قاط": 6574,
      "eng": 6575,
      "دعوة": 6576,
      "فب": 6577,
      "المشكلة": 6578,
      "الثقافية": 6579,
      "منتخب": 6580,
      "السلطان": 6581,
      "البلا": 6582,
      "بالمدينة": 6583,
      "سيف": 6584,
      "الكلية": 6585,
      "الالمانية": 6586,
      "ارقام": 6587,
      "سعود": 6588,
      "##صا": 6589,
      "وجاء": 6590,
      "المحافظ": 6591,
      "عاش": 6592,
      "الحساب": 6593,
      "##▬▬▬▬": 6594,
      "وتب": 6595,
      "المشاكل": 6596,
      "##نتين": 6597,
      "عودة": 6598,
      "42": 6599,
      "##قين": 6600,
      "فاس": 6601,
      "##وادث": 6602,
      "##لبين": 6603,
      "ab": 6604,
      "مدونة": 6605,
      "new": 6606,
      "المكتب": 6607,
      "##نم": 6608,
      "اختبار": 6609,
      "##قاذ": 6610,
      "ضرب": 6611,
      "##ies": 6612,
      "لحقوق": 6613,
      "##ــــــــــــــــ": 6614,
      "يلت": 6615,
      "نظرا": 6616,
      "بالغ": 6617,
      "الافت": 6618,
      "بعمل": 6619,
      "امكانية": 6620,
      "##بيان": 6621,
      "##ديلات": 6622,
      "ولذلك": 6623,
      "وذ": 6624,
      "##ثرة": 6625,
      "##رتها": 6626,
      "تقع": 6627,
      "##ريقي": 6628,
      "توجد": 6629,
      "##ht": 6630,
      "عقب": 6631,
      "الفوتوشوب": 6632,
      "المتخصصة": 6633,
      "الحاجة": 6634,
      "يحتوي": 6635,
      "بض": 6636,
      "##ياتي": 6637,
      "موخرا": 6638,
      "##نبي": 6639,
      "للات": 6640,
      "الفع": 6641,
      "##ـات": 6642,
      "النقد": 6643,
      "##60": 6644,
      "حديثه": 6645,
      "اشكال": 6646,
      "الزرا": 6647,
      "عادة": 6648,
      "##ريحة": 6649,
      "##وارع": 6650,
      "##اثير": 6651,
      "##ينه": 6652,
      "##فذ": 6653,
      "الكهرباء": 6654,
      "الغرب": 6655,
      "الترحيب": 6656,
      "##رشح": 6657,
      "شن": 6658,
      "ادوات": 6659,
      "قبيلة": 6660,
      "43": 6661,
      "النور": 6662,
      "بالدم": 6663,
      "حف": 6664,
      "البار": 6665,
      "العلامة": 6666,
      "##ــم": 6667,
      "يبلغ": 6668,
      "تصف": 6669,
      "ذوي": 6670,
      "جيدة": 6671,
      "خطة": 6672,
      "عال": 6673,
      "ورس": 6674,
      "الدستور": 6675,
      "المرا": 6676,
      "الوظايف": 6677,
      "44": 6678,
      "##كمال": 6679,
      "كوك": 6680,
      "اقليم": 6681,
      "وبعض": 6682,
      "مالية": 6683,
      "##برم": 6684,
      "علماء": 6685,
      "الشمال": 6686,
      "##راما": 6687,
      "زر": 6688,
      "##sd": 6689,
      "لعام": 6690,
      "ها": 6691,
      "##قيدة": 6692,
      "with": 6693,
      "##ناصر": 6694,
      "المهندس": 6695,
      "يمنع": 6696,
      "##باك": 6697,
      "حالات": 6698,
      "الحرارة": 6699,
      "الاند": 6700,
      "العمال": 6701,
      "النشاط": 6702,
      "مقال": 6703,
      "الاراء": 6704,
      "##دار": 6705,
      "لمش": 6706,
      "المشاريع": 6707,
      "فني": 6708,
      "مجه": 6709,
      "ايق": 6710,
      "##فيذي": 6711,
      "شركاينا": 6712,
      "##جمال": 6713,
      "القدرة": 6714,
      "ليف": 6715,
      "الدعوة": 6716,
      "الغذايية": 6717,
      "الموافق": 6718,
      "رايت": 6719,
      "والاش": 6720,
      "999": 6721,
      "tech": 6722,
      "الاشياء": 6723,
      "الكلمات": 6724,
      "سياسي": 6725,
      "##رقية": 6726,
      "كاف": 6727,
      "الافضل": 6728,
      "لديه": 6729,
      "القوة": 6730,
      "غدا": 6731,
      "خطر": 6732,
      "اسمه": 6733,
      "##نات": 6734,
      "رابط": 6735,
      "الاجراءات": 6736,
      "الانحراف": 6737,
      "##راسات": 6738,
      "باف": 6739,
      "op": 6740,
      "ذو": 6741,
      "الاموال": 6742,
      "الممت": 6743,
      "##ايفة": 6744,
      "الخلف": 6745,
      "بالعمل": 6746,
      "لاول": 6747,
      "موج": 6748,
      "##ويض": 6749,
      "استراليا": 6750,
      "الطقس": 6751,
      "الرمض": 6752,
      "قانونية": 6753,
      "الكترونية": 6754,
      "مرح": 6755,
      "كافية": 6756,
      "اعتبار": 6757,
      "##اولات": 6758,
      "بحضور": 6759,
      "السكن": 6760,
      "##بان": 6761,
      "##هاء": 6762,
      "##بري": 6763,
      "##سمة": 6764,
      "السنوات": 6765,
      "##طلبات": 6766,
      "بذ": 6767,
      "الحفاظ": 6768,
      "رياض": 6769,
      "الغاز": 6770,
      "مكون": 6771,
      "ابيه": 6772,
      "ابى": 6773,
      "بسرعة": 6774,
      "وتد": 6775,
      "النوم": 6776,
      "للمست": 6777,
      "##لاقة": 6778,
      "المناسبة": 6779,
      "اعراض": 6780,
      "حمد": 6781,
      "الطايف": 6782,
      "ذي": 6783,
      "الاي": 6784,
      "افتتاح": 6785,
      "##عيدة": 6786,
      "تشطيب": 6787,
      "##جاح": 6788,
      "اشخاص": 6789,
      "فرنك": 6790,
      "##تان": 6791,
      "الغرفة": 6792,
      "##جح": 6793,
      "بوسع": 6794,
      "العمومية": 6795,
      "المكتبة": 6796,
      "##يريا": 6797,
      "##فيل": 6798,
      "##ليزك": 6799,
      "مناق": 6800,
      "دعا": 6801,
      "اليابان": 6802,
      "اسبوعين": 6803,
      "مجتمع": 6804,
      "##فرد": 6805,
      "قرا": 6806,
      "##طع": 6807,
      "procedure": 6808,
      "السيرة": 6809,
      "##ial": 6810,
      "الفعل": 6811,
      "##كاء": 6812,
      "الاحزاب": 6813,
      "والرو": 6814,
      "##بلوما": 6815,
      "المقبلة": 6816,
      "بطاقة": 6817,
      "46": 6818,
      "النجاح": 6819,
      "يخت": 6820,
      "##ينات": 6821,
      "##اعية": 6822,
      "##ارث": 6823,
      "الخز": 6824,
      "##برت": 6825,
      "المعجم": 6826,
      "##ايط": 6827,
      "قاد": 6828,
      "نفسي": 6829,
      "استضافة": 6830,
      "الفرنك": 6831,
      "##لندا": 6832,
      "##حص": 6833,
      "حضور": 6834,
      "شبه": 6835,
      "##هولة": 6836,
      "##وزير": 6837,
      "جهد": 6838,
      "ادارية": 6839,
      "بالضرورة": 6840,
      "##قلب": 6841,
      "باص": 6842,
      "الاستخدام": 6843,
      "الجنيه": 6844,
      "بغير": 6845,
      "ورج": 6846,
      "اراء": 6847,
      "لديها": 6848,
      "##روت": 6849,
      "##فيديو": 6850,
      "الفرد": 6851,
      "##حك": 6852,
      "##خلي": 6853,
      "جاءت": 6854,
      "تمن": 6855,
      "##علومات": 6856,
      "الاسنان": 6857,
      "ادى": 6858,
      "موقعنا": 6859,
      "تايل": 6860,
      "بعيد": 6861,
      "اسواق": 6862,
      "طارق": 6863,
      "ملا": 6864,
      "وفاة": 6865,
      "مرس": 6866,
      "##روق": 6867,
      "المعارضة": 6868,
      "##كرا": 6869,
      "استعمال": 6870,
      "اجراءات": 6871,
      "اقول": 6872,
      "فاط": 6873,
      "##ريقية": 6874,
      "اللازمة": 6875,
      "##ولت": 6876,
      "##وتا": 6877,
      "التلفزيون": 6878,
      "##يكا": 6879,
      "الصينية": 6880,
      "تخرج": 6881,
      "##ak": 6882,
      "ازالة": 6883,
      "حصري": 6884,
      "##ail": 6885,
      "##داخل": 6886,
      "##اجد": 6887,
      "##لفت": 6888,
      "جميل": 6889,
      "السج": 6890,
      "جريدة": 6891,
      "الصوم": 6892,
      "التنفيذ": 6893,
      "يزال": 6894,
      "##بيعات": 6895,
      "جورج": 6896,
      "ارها": 6897,
      "##رالي": 6898,
      "الانتها": 6899,
      "بعيدا": 6900,
      "معد": 6901,
      "يفت": 6902,
      "ap": 6903,
      "متنوعة": 6904,
      "دير": 6905,
      "صرف": 6906,
      "الدرجة": 6907,
      "وكذا": 6908,
      "الاقامة": 6909,
      "تحضير": 6910,
      "المهدي": 6911,
      "مبارك": 6912,
      "السلف": 6913,
      "ستكون": 6914,
      "ادناه": 6915,
      "الاعلامية": 6916,
      "##ارين": 6917,
      "متن": 6918,
      "القيامة": 6919,
      "##رط": 6920,
      "تواصل": 6921,
      "برشلونة": 6922,
      "العنف": 6923,
      "##ضاع": 6924,
      "الروية": 6925,
      "حوار": 6926,
      "نقاط": 6927,
      "الدراسي": 6928,
      "نن": 6929,
      "##سيم": 6930,
      "what": 6931,
      "علا": 6932,
      "##rab": 6933,
      "##فعات": 6934,
      "##ورها": 6935,
      "الاخضر": 6936,
      "عايشة": 6937,
      "تلا": 6938,
      "العدل": 6939,
      "يسمح": 6940,
      "##باه": 6941,
      "نيس": 6942,
      "سري": 6943,
      "الانبياء": 6944,
      "##ge": 6945,
      "الثقافي": 6946,
      "السكر": 6947,
      "##سيس": 6948,
      "دايرة": 6949,
      "كمال": 6950,
      "47": 6951,
      "##زية": 6952,
      "اطل": 6953,
      "قوم": 6954,
      "ادخل": 6955,
      "الاخوان": 6956,
      "##غار": 6957,
      "الترم": 6958,
      "للعام": 6959,
      "هشام": 6960,
      "##محمد": 6961,
      "##طفل": 6962,
      "##ليت": 6963,
      "كاتبها": 6964,
      "الزي": 6965,
      "بالام": 6966,
      "احيانا": 6967,
      "هاي": 6968,
      "##96": 6969,
      "الفيز": 6970,
      "ليل": 6971,
      "##15": 6972,
      "المعروف": 6973,
      "الشاف": 6974,
      "يدل": 6975,
      "##واري": 6976,
      "لعب": 6977,
      "كندا": 6978,
      "##ss": 6979,
      "تحديث": 6980,
      "برياسة": 6981,
      "المالي": 6982,
      "الهواء": 6983,
      "##ie": 6984,
      "هى": 6985,
      "احدا": 6986,
      "اللغات": 6987,
      "الطيران": 6988,
      "خيارات": 6989,
      "امتحانات": 6990,
      "العدو": 6991,
      "والتص": 6992,
      "القادمة": 6993,
      "الالت": 6994,
      "المنظمة": 6995,
      "نجم": 6996,
      "لاص": 6997,
      "##ماس": 6998,
      "محكمة": 6999,
      "##اءة": 7000,
      "الجنسية": 7001,
      "##سمع": 7002,
      "المنتج": 7003,
      "اليهود": 7004,
      "انش": 7005,
      "الواق": 7006,
      "##امنة": 7007,
      "جسم": 7008,
      "الميل": 7009,
      "عديدة": 7010,
      "##طرية": 7011,
      "متخصصة": 7012,
      "اقتصاد": 7013,
      "الطالب": 7014,
      "الملكية": 7015,
      "##انيه": 7016,
      "##ساتين": 7017,
      "الذكية": 7018,
      "##طلاب": 7019,
      "##طلاق": 7020,
      "والاق": 7021,
      "##ملت": 7022,
      "وتط": 7023,
      "النتايج": 7024,
      "مقارنة": 7025,
      "منح": 7026,
      "انظر": 7027,
      "تتحمل": 7028,
      "عبدالعزيز": 7029,
      "الاسهم": 7030,
      "والسل": 7031,
      "مون": 7032,
      "طرابلس": 7033,
      "وتج": 7034,
      "روز": 7035,
      "الاطراف": 7036,
      "الحاج": 7037,
      "تصوير": 7038,
      "الرف": 7039,
      "متميز": 7040,
      "##وضاع": 7041,
      "كتابة": 7042,
      "##ايى": 7043,
      "ايمان": 7044,
      "شف": 7045,
      "الزيت": 7046,
      "ايس": 7047,
      "##شفيات": 7048,
      "لتحقيق": 7049,
      "##افرين": 7050,
      "##اهيل": 7051,
      "وهل": 7052,
      "techn": 7053,
      "##lish": 7054,
      "الاله": 7055,
      "##all": 7056,
      "بالمن": 7057,
      "وجدت": 7058,
      "باريس": 7059,
      "الصباح": 7060,
      "والرسوم": 7061,
      "اسيلة": 7062,
      "##فور": 7063,
      "تاتي": 7064,
      "جيش": 7065,
      "انني": 7066,
      "##اوية": 7067,
      "واحدا": 7068,
      "وتست": 7069,
      "عبدالرح": 7070,
      "كري": 7071,
      "##هههه": 7072,
      "وبر": 7073,
      "الموظ": 7074,
      "سيدي": 7075,
      "العايلة": 7076,
      "حظ": 7077,
      "الايج": 7078,
      "##واطن": 7079,
      "الحديد": 7080,
      "##iz": 7081,
      "للايجار": 7082,
      "حج": 7083,
      "عي": 7084,
      "عصر": 7085,
      "بيد": 7086,
      "مشرو": 7087,
      "سكن": 7088,
      "باقي": 7089,
      "الاعلامي": 7090,
      "##are": 7091,
      "التصوير": 7092,
      "غياب": 7093,
      "le": 7094,
      "ولكنه": 7095,
      "##عامل": 7096,
      "الاصلاح": 7097,
      "فرص": 7098,
      "ناس": 7099,
      "arab": 7100,
      "تلق": 7101,
      "التكنولوجيا": 7102,
      "##قف": 7103,
      "##فيان": 7104,
      "##بارك": 7105,
      "##ساس": 7106,
      "##ظاه": 7107,
      "الرحيم": 7108,
      "باعتبار": 7109,
      "الواس": 7110,
      "##صير": 7111,
      "بعضها": 7112,
      "##هران": 7113,
      "استخدم": 7114,
      "اللاج": 7115,
      "##13": 7116,
      "ساحة": 7117,
      "الشارع": 7118,
      "اعرف": 7119,
      "اللون": 7120,
      "محفوظة": 7121,
      "طن": 7122,
      "اخي": 7123,
      "الحجز": 7124,
      "جايزة": 7125,
      "##ارقة": 7126,
      "##كرر": 7127,
      "##دوز": 7128,
      "امه": 7129,
      "شهرين": 7130,
      "المفتوح": 7131,
      "وصح": 7132,
      "الفلبين": 7133,
      "خطوة": 7134,
      "انتخابات": 7135,
      "ليب": 7136,
      "مسرح": 7137,
      "انفسهم": 7138,
      "الاسكندرية": 7139,
      "الضوء": 7140,
      "التغيير": 7141,
      "dream": 7142,
      "هريرة": 7143,
      "اعط": 7144,
      "الموضوعات": 7145,
      "الرييسي": 7146,
      "##وابط": 7147,
      "لتش": 7148,
      "صن": 7149,
      "ثقافة": 7150,
      "اليونان": 7151,
      "التحقيق": 7152,
      "وفى": 7153,
      "الحقيقي": 7154,
      "علامة": 7155,
      "باسيل": 7156,
      "ربي": 7157,
      "مراكز": 7158,
      "ساح": 7159,
      "تشكل": 7160,
      "التقدم": 7161,
      "##واني": 7162,
      "تشحن": 7163,
      "عايل": 7164,
      "الصالح": 7165,
      "البرم": 7166,
      "ضمان": 7167,
      "مرك": 7168,
      "كبار": 7169,
      "##ريطة": 7170,
      "##يزان": 7171,
      "ورا": 7172,
      "الاسواق": 7173,
      "العمليات": 7174,
      "الوزن": 7175,
      "اصابة": 7176,
      "التعليق": 7177,
      "##لاه": 7178,
      "حياته": 7179,
      "وحده": 7180,
      "##هوم": 7181,
      "حلم": 7182,
      "واكثر": 7183,
      "رف": 7184,
      "وغيره": 7185,
      "اتخاذ": 7186,
      "##وظ": 7187,
      "العقد": 7188,
      "##ology": 7189,
      "وصلت": 7190,
      "ازياء": 7191,
      "##تمعات": 7192,
      "المشاركات": 7193,
      "ac": 7194,
      "اسرة": 7195,
      "ذاك": 7196,
      "يدعو": 7197,
      "القاسم": 7198,
      "##مين": 7199,
      "القراءة": 7200,
      "##وسات": 7201,
      "للجميع": 7202,
      "الوحدة": 7203,
      "الاحوال": 7204,
      "الطبيب": 7205,
      "##باحة": 7206,
      "اولاد": 7207,
      "الممكن": 7208,
      "ايا": 7209,
      "سبت": 7210,
      "##ادلة": 7211,
      "mp": 7212,
      "se": 7213,
      "ارا": 7214,
      "اسطنبول": 7215,
      "##طورة": 7216,
      "##كتابة": 7217,
      "ملعب": 7218,
      "##22": 7219,
      "موكدا": 7220,
      "كتابه": 7221,
      "القصة": 7222,
      "الصحف": 7223,
      "المسرح": 7224,
      "المثال": 7225,
      "المرة": 7226,
      "بمعنى": 7227,
      "ممثل": 7228,
      "باش": 7229,
      "والانترنت": 7230,
      "ميك": 7231,
      "انظمة": 7232,
      "##لل": 7233,
      "ناف": 7234,
      "##اييات": 7235,
      "الهلال": 7236,
      "تصريح": 7237,
      "حذف": 7238,
      "الهي": 7239,
      "الفضايية": 7240,
      "sk": 7241,
      "ده": 7242,
      "اتباع": 7243,
      "الشوون": 7244,
      "##اءات": 7245,
      "المجالات": 7246,
      "سكري": 7247,
      "المستعمل": 7248,
      "##او": 7249,
      "تواجه": 7250,
      "الادنى": 7251,
      "الحالية": 7252,
      "##خصة": 7253,
      "الطيور": 7254,
      "##يص": 7255,
      "الغير": 7256,
      "احياء": 7257,
      "فكر": 7258,
      "بحر": 7259,
      "منظ": 7260,
      "الفلا": 7261,
      "الوسطى": 7262,
      "انتهى": 7263,
      "وتف": 7264,
      "موت": 7265,
      "يسمى": 7266,
      "المشتركة": 7267,
      "يشت": 7268,
      "وفد": 7269,
      "باج": 7270,
      "هاش": 7271,
      "##واجهة": 7272,
      "المريض": 7273,
      "##art": 7274,
      "قسـم": 7275,
      "اغلب": 7276,
      "##بك": 7277,
      "##16": 7278,
      "ويف": 7279,
      "وهكذا": 7280,
      "لتع": 7281,
      "بريطانيا": 7282,
      "##خفض": 7283,
      "##طه": 7284,
      "اريد": 7285,
      "##ربت": 7286,
      "ابواب": 7287,
      "تسجل": 7288,
      "##ايكة": 7289,
      "عددا": 7290,
      "فالم": 7291,
      "لندن": 7292,
      "للبن": 7293,
      "تشت": 7294,
      "جزيرة": 7295,
      "مرور": 7296,
      "عدسات": 7297,
      "اللعبة": 7298,
      "ــ": 7299,
      "##ارتك": 7300,
      "متصفح": 7301,
      "الصحابة": 7302,
      "##كاة": 7303,
      "السياحية": 7304,
      "##افه": 7305,
      "لديهم": 7306,
      "المصورة": 7307,
      "جراء": 7308,
      "الحاكم": 7309,
      "تصاميم": 7310,
      "مصالح": 7311,
      "فول": 7312,
      "مذ": 7313,
      "الثلاثة": 7314,
      "##ـر": 7315,
      "والاقتص": 7316,
      "هواتف": 7317,
      "اليومية": 7318,
      "يمت": 7319,
      "الاشتراك": 7320,
      "##اكمة": 7321,
      "##ضمام": 7322,
      "المبارك": 7323,
      "تبحث": 7324,
      "الشاب": 7325,
      "معتمد": 7326,
      "مستقبل": 7327,
      "والليزك": 7328,
      "نون": 7329,
      "##ver": 7330,
      "اخص": 7331,
      "الشيطان": 7332,
      "عط": 7333,
      "الرواية": 7334,
      "مدن": 7335,
      "الحرية": 7336,
      "وربما": 7337,
      "الخصوصية": 7338,
      "زم": 7339,
      "الحالات": 7340,
      "لوك": 7341,
      "بالليزك": 7342,
      "##وطة": 7343,
      "الداخلي": 7344,
      "نسخ": 7345,
      "وعدد": 7346,
      "اغاني": 7347,
      "ملايين": 7348,
      "الاجمالي": 7349,
      "لاج": 7350,
      "##صرى": 7351,
      "سال": 7352,
      "المعنى": 7353,
      "الده": 7354,
      "##روفة": 7355,
      "بالفعل": 7356,
      "##يرو": 7357,
      "55": 7358,
      "وبم": 7359,
      "سماحة": 7360,
      "فاي": 7361,
      "موجود": 7362,
      "تور": 7363,
      "لمح": 7364,
      "المهندسين": 7365,
      "فص": 7366,
      "الكنيسة": 7367,
      "##ابيع": 7368,
      "##حتاج": 7369,
      "القضايا": 7370,
      "مميز": 7371,
      "منس": 7372,
      "مساحة": 7373,
      "##ماد": 7374,
      "المطبخ": 7375,
      "اخرجه": 7376,
      "حرم": 7377,
      "واعت": 7378,
      "##اليب": 7379,
      "مناسبة": 7380,
      "الجزايري": 7381,
      "ياخذ": 7382,
      "وطنية": 7383,
      "التنظيف": 7384,
      "للز": 7385,
      "الربيع": 7386,
      "تحسين": 7387,
      "يقبل": 7388,
      "بالر": 7389,
      "ذا": 7390,
      "يبدا": 7391,
      "الترجمة": 7392,
      "اصول": 7393,
      "##سيارات": 7394,
      "الاساسي": 7395,
      "واضح": 7396,
      "سابق": 7397,
      "سيدات": 7398,
      "cn": 7399,
      "##طباء": 7400,
      "لكنها": 7401,
      "غيرها": 7402,
      "سبع": 7403,
      "خادم": 7404,
      "تعود": 7405,
      "##يها": 7406,
      "معالجة": 7407,
      "##nd": 7408,
      "الطيب": 7409,
      "تعت": 7410,
      "زايد": 7411,
      "##نيك": 7412,
      "حماس": 7413,
      "الشريعة": 7414,
      "رواد": 7415,
      "##مالك": 7416,
      "##ذار": 7417,
      "##ماغ": 7418,
      "وجعل": 7419,
      "الشهيد": 7420,
      "##ـا": 7421,
      "زيت": 7422,
      "195": 7423,
      "هون": 7424,
      "مميزة": 7425,
      "مني": 7426,
      "استقبل": 7427,
      "ذكرى": 7428,
      "العض": 7429,
      "##ودرات": 7430,
      "ستة": 7431,
      "##حونة": 7432,
      "البحرية": 7433,
      "الــ": 7434,
      "الدقيقة": 7435,
      "ايار": 7436,
      "##ـل": 7437,
      "##همية": 7438,
      "السوداني": 7439,
      "وطلب": 7440,
      "اندونيس": 7441,
      "الايطالية": 7442,
      "جيب": 7443,
      "##خين": 7444,
      "اونلاين": 7445,
      "##سيا": 7446,
      "متخصص": 7447,
      "تجعل": 7448,
      "النهاية": 7449,
      "اتصل": 7450,
      "فرا": 7451,
      "##نيع": 7452,
      "نوم": 7453,
      "سابقا": 7454,
      "معهد": 7455,
      "خطا": 7456,
      "وظ": 7457,
      "الني": 7458,
      "للمن": 7459,
      "su": 7460,
      "##المشاركة": 7461,
      "الغام": 7462,
      "التقرير": 7463,
      "وعندما": 7464,
      "الملكي": 7465,
      "##فون": 7466,
      "جميلة": 7467,
      "اقوى": 7468,
      "الشروحات": 7469,
      "الكاملة": 7470,
      "رحلة": 7471,
      "الهد": 7472,
      "النبوي": 7473,
      "اليهم": 7474,
      "المنشات": 7475,
      "تصريحات": 7476,
      "مزيد": 7477,
      "##هري": 7478,
      "##شب": 7479,
      "سطح": 7480,
      "or": 7481,
      "الشيء": 7482,
      "منكم": 7483,
      "عامل": 7484,
      "يشكل": 7485,
      "بوسعك": 7486,
      "المهمة": 7487,
      "العذ": 7488,
      "بالقرب": 7489,
      "والض": 7490,
      "صندوق": 7491,
      "تيم": 7492,
      "##ويش": 7493,
      "##فاءة": 7494,
      "التاريخية": 7495,
      "متى": 7496,
      "ثورة": 7497,
      "والبرامج": 7498,
      "الجماعة": 7499,
      "##لكم": 7500,
      "قاعة": 7501,
      "##ومين": 7502,
      "البقرة": 7503,
      "##وطن": 7504,
      "عيادة": 7505,
      "##واريخ": 7506,
      "##جلة": 7507,
      "##وعا": 7508,
      "الارشيف": 7509,
      "بالدمام": 7510,
      "##ond": 7511,
      "حدوث": 7512,
      "##بره": 7513,
      "##80": 7514,
      "وادي": 7515,
      "الانتخ": 7516,
      "##املات": 7517,
      "طه": 7518,
      "لابد": 7519,
      "اغلاق": 7520,
      "منهما": 7521,
      "التجاري": 7522,
      "##ردد": 7523,
      "بالكامل": 7524,
      "سلطان": 7525,
      "##وقيت": 7526,
      "المتحدث": 7527,
      "لحظة": 7528,
      "الفلسطينيين": 7529,
      "الالماني": 7530,
      "اسبانيا": 7531,
      "fem": 7532,
      "english": 7533,
      "المصالحة": 7534,
      "شكرا": 7535,
      "##نايي": 7536,
      "كاب": 7537,
      "النيل": 7538,
      "##وحات": 7539,
      "افكار": 7540,
      "معدات": 7541,
      "الفايدة": 7542,
      "كشفت": 7543,
      "وبه": 7544,
      "##ادته": 7545,
      "##عاة": 7546,
      "ثاني": 7547,
      "##نوب": 7548,
      "ul": 7549,
      "##هادات": 7550,
      "##رجع": 7551,
      "الظروف": 7552,
      "لموقع": 7553,
      "##ادرات": 7554,
      "اطلق": 7555,
      "قليل": 7556,
      "موض": 7557,
      "##اردة": 7558,
      "##ايص": 7559,
      "باللغة": 7560,
      "التنفيذي": 7561,
      "بمس": 7562,
      "ويج": 7563,
      "يصبح": 7564,
      "99": 7565,
      "فران": 7566,
      "56": 7567,
      "وتعالى": 7568,
      "لعملية": 7569,
      "sy": 7570,
      "ناصر": 7571,
      "49": 7572,
      "دل": 7573,
      "نو": 7574,
      "والصيانة": 7575,
      "تذكر": 7576,
      "الملتقى": 7577,
      "##ياهو": 7578,
      "##لاط": 7579,
      "مدارس": 7580,
      "رحمة": 7581,
      "انتهاء": 7582,
      "##وقعة": 7583,
      "المهنية": 7584,
      "الاستفادة": 7585,
      "الاساس": 7586,
      "الغربي": 7587,
      "عسير": 7588,
      "المسابقات": 7589,
      "##مد": 7590,
      "##قوا": 7591,
      "يلي": 7592,
      "##رياضة": 7593,
      "فيهم": 7594,
      "ضح": 7595,
      "ايم": 7596,
      "البريطاني": 7597,
      "الظهر": 7598,
      "العيد": 7599,
      "مصلحة": 7600,
      "الخيمة": 7601,
      "توجيه": 7602,
      "جوجل": 7603,
      "يبقى": 7604,
      "جاز": 7605,
      "الاداء": 7606,
      "##ستير": 7607,
      "جابر": 7608,
      "ديس": 7609,
      "##غاف": 7610,
      "وشراء": 7611,
      "الصهيون": 7612,
      "##تمال": 7613,
      "سهولة": 7614,
      "تخص": 7615,
      "البول": 7616,
      "##hd": 7617,
      "فشل": 7618,
      "التخطيط": 7619,
      "جب": 7620,
      "قليلا": 7621,
      "اوكر": 7622,
      "اختصاص": 7623,
      "وتطوير": 7624,
      "الثانى": 7625,
      "الارهابية": 7626,
      "الهواتف": 7627,
      "النبوية": 7628,
      "بالمع": 7629,
      "سلامة": 7630,
      "بلغت": 7631,
      "اتفاقية": 7632,
      "اضاف": 7633,
      "##هاجم": 7634,
      "عسكرية": 7635,
      "بجميع": 7636,
      "##قلاب": 7637,
      "##ربه": 7638,
      "##راجات": 7639,
      "مالي": 7640,
      "حلب": 7641,
      "اللاجيين": 7642,
      "جهود": 7643,
      "المركزية": 7644,
      "رايع": 7645,
      "##واضيع": 7646,
      "الفا": 7647,
      "المسوولين": 7648,
      "مفتوح": 7649,
      "مستع": 7650,
      "الدفع": 7651,
      "حرة": 7652,
      "##ماذج": 7653,
      "الانتقال": 7654,
      "تشمل": 7655,
      "عاص": 7656,
      "النم": 7657,
      "مواقف": 7658,
      "فوايد": 7659,
      "بلدة": 7660,
      "##of": 7661,
      "59": 7662,
      "العملاء": 7663,
      "الحماية": 7664,
      "##روات": 7665,
      "اكل": 7666,
      "واقع": 7667,
      "لعرض": 7668,
      "##ركي": 7669,
      "##ـتـ": 7670,
      "مظلات": 7671,
      "بالتعاون": 7672,
      "للانت": 7673,
      "##حويل": 7674,
      "الدكت": 7675,
      "قاله": 7676,
      "##ard": 7677,
      "##فاوضات": 7678,
      "الخروج": 7679,
      "الاهتمام": 7680,
      "بعده": 7681,
      "منازل": 7682,
      "مراجعة": 7683,
      "تسبب": 7684,
      "ترجمة": 7685,
      "##رونة": 7686,
      "سفيان": 7687,
      "انقر": 7688,
      "السفير": 7689,
      "جوال": 7690,
      "2006": 7691,
      "##لاس": 7692,
      "##تمكن": 7693,
      "ثانية": 7694,
      "##age": 7695,
      "بالمية": 7696,
      "انج": 7697,
      "غان": 7698,
      "بالا": 7699,
      "##فاعل": 7700,
      "##sl": 7701,
      "##سمى": 7702,
      "##وفى": 7703,
      "تجارية": 7704,
      "##ويلا": 7705,
      "ولهذا": 7706,
      "تدريب": 7707,
      "الايرانية": 7708,
      "ذاته": 7709,
      "المطلوب": 7710,
      "الكامل": 7711,
      "##اصرة": 7712,
      "صحي": 7713,
      "يفعل": 7714,
      "##tor": 7715,
      "##قيام": 7716,
      "النصر": 7717,
      "جلسة": 7718,
      "ابحث": 7719,
      "حام": 7720,
      "يطلق": 7721,
      "كلما": 7722,
      "قريب": 7723,
      "امور": 7724,
      "شعار": 7725,
      "##ديس": 7726,
      "تضم": 7727,
      "فلي": 7728,
      "##هلك": 7729,
      "راج": 7730,
      "الاقصى": 7731,
      "القايم": 7732,
      "##الون": 7733,
      "خليفة": 7734,
      "الديني": 7735,
      "النه": 7736,
      "فلن": 7737,
      "##عبد": 7738,
      "الجيل": 7739,
      "احدهما": 7740,
      "##عدد": 7741,
      "##يفي": 7742,
      "##شرح": 7743,
      "وعمل": 7744,
      "فيل": 7745,
      "##lc": 7746,
      "العاملة": 7747,
      "الغاء": 7748,
      "بز": 7749,
      "ايد": 7750,
      "بالاست": 7751,
      "##غت": 7752,
      "صي": 7753,
      "بخصوص": 7754,
      "تخت": 7755,
      "84": 7756,
      "بامكان": 7757,
      "##ien": 7758,
      "والذ": 7759,
      "58": 7760,
      "والدي": 7761,
      "##ادثة": 7762,
      "وسوف": 7763,
      "روي": 7764,
      "الاستفسارات": 7765,
      "##رقم": 7766,
      "##فرة": 7767,
      "فهد": 7768,
      "##يازات": 7769,
      "##tl": 7770,
      "52": 7771,
      "فد": 7772,
      "الطلبة": 7773,
      "ذه": 7774,
      "طويل": 7775,
      "الابداع": 7776,
      "عبدالرحمن": 7777,
      "##منة": 7778,
      "يدي": 7779,
      "القوم": 7780,
      "استعداد": 7781,
      "##واجب": 7782,
      "طبيع": 7783,
      "المومن": 7784,
      "##ظبي": 7785,
      "الاسيلة": 7786,
      "جس": 7787,
      "بحاجة": 7788,
      "الاثار": 7789,
      "##يفر": 7790,
      "##وايية": 7791,
      "##تمي": 7792,
      "doc": 7793,
      "مقدم": 7794,
      "شخصا": 7795,
      "فانت": 7796,
      "##شيات": 7797,
      "ليرة": 7798,
      "المعم": 7799,
      "الافكار": 7800,
      "##وبايل": 7801,
      "ابيض": 7802,
      "الاصلي": 7803,
      "الموارد": 7804,
      "##فيدة": 7805,
      "البطولة": 7806,
      "الاشكال": 7807,
      "##عث": 7808,
      "##صدر": 7809,
      "المحتوى": 7810,
      "وتحميل": 7811,
      "العقوبات": 7812,
      "الاكاديمية": 7813,
      "غز": 7814,
      "استطاع": 7815,
      "##ويورك": 7816,
      "##جيع": 7817,
      "الهجرة": 7818,
      "مريم": 7819,
      "المشارك": 7820,
      "الاسباني": 7821,
      "جول": 7822,
      "##yd": 7823,
      "اصاب": 7824,
      "##لون": 7825,
      "الريال": 7826,
      "##جلات": 7827,
      "اتش": 7828,
      "الفوز": 7829,
      "بجامعة": 7830,
      "المناسبات": 7831,
      "الموجود": 7832,
      "وحي": 7833,
      "الاهل": 7834,
      "الجولة": 7835,
      "الجد": 7836,
      "##عرف": 7837,
      "الجمال": 7838,
      "منهج": 7839,
      "والمل": 7840,
      "طوال": 7841,
      "##قولة": 7842,
      "57": 7843,
      "##وكوما": 7844,
      "القيم": 7845,
      "##ديوهات": 7846,
      "53": 7847,
      "استث": 7848,
      "شقة": 7849,
      "البديل": 7850,
      "لشركة": 7851,
      "خيار": 7852,
      "زوجها": 7853,
      "جذ": 7854,
      "دب": 7855,
      "شات": 7856,
      "المقال": 7857,
      "توجه": 7858,
      "بالكويت": 7859,
      "الاماكن": 7860,
      "مند": 7861,
      "زاد": 7862,
      "##سيط": 7863,
      "رجلا": 7864,
      "الخلاف": 7865,
      "ونقل": 7866,
      "يجري": 7867,
      "##وقة": 7868,
      "الوك": 7869,
      "##ناح": 7870,
      "توكد": 7871,
      "البور": 7872,
      "وارت": 7873,
      "الاخبارية": 7874,
      "المسيحي": 7875,
      "فاج": 7876,
      "##راكة": 7877,
      "لاجهزة": 7878,
      "##قدام": 7879,
      "القوانين": 7880,
      "مسا": 7881,
      "em": 7882,
      "تصنيف": 7883,
      "90": 7884,
      "مور": 7885,
      "##طوط": 7886,
      "موضع": 7887,
      "الميد": 7888,
      "كرم": 7889,
      "روم": 7890,
      "بطل": 7891,
      "عربة": 7892,
      "ويكون": 7893,
      "عندي": 7894,
      "##لث": 7895,
      "مصري": 7896,
      "شرطة": 7897,
      "اوراق": 7898,
      "ماك": 7899,
      "لنفس": 7900,
      "##انس": 7901,
      "علاقات": 7902,
      "الروم": 7903,
      "##حام": 7904,
      "العاملين": 7905,
      "منش": 7906,
      "اقدم": 7907,
      "لبعض": 7908,
      "اقام": 7909,
      "الملاب": 7910,
      "لانت": 7911,
      "##اريا": 7912,
      "ماز": 7913,
      "خيرا": 7914,
      "##حتها": 7915,
      "eyes": 7916,
      "54": 7917,
      "والمرييات": 7918,
      "بعدم": 7919,
      "واضحة": 7920,
      "نساء": 7921,
      "المطلوبة": 7922,
      "##عاقد": 7923,
      "##عوا": 7924,
      "##شه": 7925,
      "عشرات": 7926,
      "2000": 7927,
      "##العاب": 7928,
      "وكن": 7929,
      "اشد": 7930,
      "العدوان": 7931,
      "اراضي": 7932,
      "##روي": 7933,
      "##يلية": 7934,
      "عامر": 7935,
      "##anc": 7936,
      "الابتدايية": 7937,
      "خطوات": 7938,
      "تون": 7939,
      "رق": 7940,
      "##غرافيا": 7941,
      "رويت": 7942,
      "##لو": 7943,
      "المور": 7944,
      "اندرويد": 7945,
      "السيدة": 7946,
      "مجالس": 7947,
      "##كورة": 7948,
      "##ــي": 7949,
      "برس": 7950,
      "طفل": 7951,
      "الهم": 7952,
      "الليلة": 7953,
      "رياضة": 7954,
      "لاغ": 7955,
      "##غبة": 7956,
      "يتحدث": 7957,
      "cont": 7958,
      "اختبارات": 7959,
      "والاط": 7960,
      "المكلف": 7961,
      "راش": 7962,
      "##فز": 7963,
      "femt": 7964,
      "اللغ": 7965,
      "شلن": 7966,
      "باخت": 7967,
      "ابوظبي": 7968,
      "عدسة": 7969,
      "##طم": 7970,
      "الصغير": 7971,
      "السوريين": 7972,
      "الكام": 7973,
      "##ass": 7974,
      "الحرمين": 7975,
      "القبض": 7976,
      "المساعدة": 7977,
      "##جير": 7978,
      "الاستثم": 7979,
      "سوء": 7980,
      "##ارسال": 7981,
      "راف": 7982,
      "##نز": 7983,
      "عالمية": 7984,
      "الديكور": 7985,
      "##شكل": 7986,
      "ثقة": 7987,
      "بقوله": 7988,
      "##يفه": 7989,
      "##رحب": 7990,
      "تحقق": 7991,
      "وسل": 7992,
      "القاري": 7993,
      "بسم": 7994,
      "توقيع": 7995,
      "المصادر": 7996,
      "وفيه": 7997,
      "السيسي": 7998,
      "التض": 7999,
      "التونسي": 8000,
      "اوت": 8001,
      "ضوء": 8002,
      "تركية": 8003,
      "تشير": 8004,
      "الاختي": 8005,
      "السنوية": 8006,
      "توس": 8007,
      "الطبيعة": 8008,
      "اخرين": 8009,
      "خليل": 8010,
      "المسالة": 8011,
      "وجميع": 8012,
      "##جال": 8013,
      "الفيس": 8014,
      "مستويات": 8015,
      "تخصص": 8016,
      "##اضر": 8017,
      "انتشار": 8018,
      "توقف": 8019,
      "##ارها": 8020,
      "##قتك": 8021,
      "الفنادق": 8022,
      "الفوركس": 8023,
      "wor": 8024,
      "##كيم": 8025,
      "تفعيل": 8026,
      "تحليل": 8027,
      "##صبح": 8028,
      "الطبخ": 8029,
      "نقول": 8030,
      "الذكرى": 8031,
      "بفضل": 8032,
      "الجاه": 8033,
      "##يتين": 8034,
      "قوانين": 8035,
      "اهتمام": 8036,
      "المساعد": 8037,
      "قرر": 8038,
      "فيصل": 8039,
      "الملابس": 8040,
      "##ube": 8041,
      "توك": 8042,
      "##ليون": 8043,
      "##تاء": 8044,
      "الاصابة": 8045,
      "sm": 8046,
      "##قها": 8047,
      "رييسية": 8048,
      "غذ": 8049,
      "##sp": 8050,
      "يحاول": 8051,
      "##ياف": 8052,
      "ذكرت": 8053,
      "يات": 8054,
      "ماكس": 8055,
      "نهر": 8056,
      "اتصال": 8057,
      "المحيط": 8058,
      "مسل": 8059,
      "##وفت": 8060,
      "تاريخية": 8061,
      "##طيور": 8062,
      "التفكير": 8063,
      "توث": 8064,
      "الاغاني": 8065,
      "المراد": 8066,
      "تسمح": 8067,
      "الفندق": 8068,
      "التيار": 8069,
      "##صورة": 8070,
      "فانها": 8071,
      "خلا": 8072,
      "وتشمل": 8073,
      "ووف": 8074,
      "الرعاية": 8075,
      "صديق": 8076,
      "##ـــة": 8077,
      "ومحمد": 8078,
      "الكتابة": 8079,
      "حقا": 8080,
      "##ارن": 8081,
      "الحافظ": 8082,
      "طيب": 8083,
      "فش": 8084,
      "الارج": 8085,
      "اعتقد": 8086,
      "الامطار": 8087,
      "اشار": 8088,
      "القومي": 8089,
      "المسا": 8090,
      "مناسب": 8091,
      "تزال": 8092,
      "##اليه": 8093,
      "يعتقد": 8094,
      "يجمع": 8095,
      "##اييا": 8096,
      "الجمهور": 8097,
      "الكلمة": 8098,
      "tw": 8099,
      "sc": 8100,
      "الاردنية": 8101,
      "المرضى": 8102,
      "المعلم": 8103,
      "تجميل": 8104,
      "انع": 8105,
      "التفعيل": 8106,
      "الصراع": 8107,
      "ايه": 8108,
      "##دريب": 8109,
      "مسعود": 8110,
      "الاسي": 8111,
      "منبر": 8112,
      "us": 8113,
      "##يما": 8114,
      "##شط": 8115,
      "##واتر": 8116,
      "مشترك": 8117,
      "الاسلحة": 8118,
      "علمية": 8119,
      "عسكري": 8120,
      "الحصرية": 8121,
      "##بعاد": 8122,
      "التشري": 8123,
      "درجات": 8124,
      "##انج": 8125,
      "##ــت": 8126,
      "حضر": 8127,
      "دراسات": 8128,
      "خطوط": 8129,
      "الكس": 8130,
      "عطر": 8131,
      "تث": 8132,
      "حسابات": 8133,
      "##هرة": 8134,
      "##فان": 8135,
      "ممارسة": 8136,
      "fac": 8137,
      "تابع": 8138,
      "غينيا": 8139,
      "يطلب": 8140,
      "##زر": 8141,
      "##يجا": 8142,
      "نطاق": 8143,
      "النسخة": 8144,
      "##اكا": 8145,
      "ظاهرة": 8146,
      "الموقف": 8147,
      "##بعث": 8148,
      "##طرير": 8149,
      "gm": 8150,
      "موسسات": 8151,
      "حديد": 8152,
      "التاكد": 8153,
      "واه": 8154,
      "الجلد": 8155,
      "التسويق": 8156,
      "لمت": 8157,
      "ملاح": 8158,
      "ناحية": 8159,
      "والاث": 8160,
      "وهى": 8161,
      "سهل": 8162,
      "الشاي": 8163,
      "pdf": 8164,
      "فساتين": 8165,
      "##يرون": 8166,
      "الازهر": 8167,
      "الاحاديث": 8168,
      "ندعم": 8169,
      "حدثني": 8170,
      "اسوان": 8171,
      "الموكد": 8172,
      "فاطمة": 8173,
      "ولقد": 8174,
      "##سبوك": 8175,
      "الاستراتيجية": 8176,
      "طيبة": 8177,
      "ارتفع": 8178,
      "ووضع": 8179,
      "##25": 8180,
      "85": 8181,
      "سقط": 8182,
      "تلفزيون": 8183,
      "الاطباء": 8184,
      "مونت": 8185,
      "ادخال": 8186,
      "##our": 8187,
      "الاصول": 8188,
      "dreambox": 8189,
      "والاص": 8190,
      "تعيين": 8191,
      "فعلا": 8192,
      "مستعرض": 8193,
      "##غوط": 8194,
      "##صص": 8195,
      "شمس": 8196,
      "تردد": 8197,
      "##طيه": 8198,
      "##ركم": 8199,
      "حرص": 8200,
      "سمير": 8201,
      "فاست": 8202,
      "الاتجاه": 8203,
      "فرد": 8204,
      "مراسل": 8205,
      "##ight": 8206,
      "##بو": 8207,
      "معروف": 8208,
      "البلدية": 8209,
      "خبراء": 8210,
      "وعبد": 8211,
      "ديم": 8212,
      "##ستي": 8213,
      "صيد": 8214,
      "يضع": 8215,
      "نيسان": 8216,
      "العدسات": 8217,
      "##كافحة": 8218,
      "سكريبت": 8219,
      "توافق": 8220,
      "حبي": 8221,
      "الفات": 8222,
      "##صيدة": 8223,
      "##كاس": 8224,
      "##يدر": 8225,
      "غريب": 8226,
      "الاحلام": 8227,
      "يونس": 8228,
      "يعتمد": 8229,
      "الواسعة": 8230,
      "لعدم": 8231,
      "استخدامها": 8232,
      "دورات": 8233,
      "فوتوشوب": 8234,
      "سقوط": 8235,
      "بقوة": 8236,
      "اجد": 8237,
      "اكدت": 8238,
      "الثقة": 8239,
      "اخصايي": 8240,
      "شرط": 8241,
      "لعلاج": 8242,
      "اوس": 8243,
      "والاعلام": 8244,
      "قرارات": 8245,
      "##ينو": 8246,
      "العدالة": 8247,
      "الالي": 8248,
      "لسان": 8249,
      "##زز": 8250,
      "كانون": 8251,
      "##بورغ": 8252,
      "قبول": 8253,
      "عمله": 8254,
      "##ياع": 8255,
      "شرف": 8256,
      "الحمام": 8257,
      "ربيع": 8258,
      "فرح": 8259,
      "الفضل": 8260,
      "الوحي": 8261,
      "##زلة": 8262,
      "yout": 8263,
      "٢٠": 8264,
      "تصدر": 8265,
      "نجوم": 8266,
      "الاحكام": 8267,
      "##66": 8268,
      "المقدس": 8269,
      "سامسون": 8270,
      "حبيب": 8271,
      "يوفر": 8272,
      "مهندس": 8273,
      "الزراعة": 8274,
      "عقل": 8275,
      "##ظى": 8276,
      "لغات": 8277,
      "هاشم": 8278,
      "تعيش": 8279,
      "##كرون": 8280,
      "والبح": 8281,
      "الرمضانية": 8282,
      "التعبير": 8283,
      "##اخرة": 8284,
      "للمح": 8285,
      "##ياته": 8286,
      "##اسوب": 8287,
      "##ebook": 8288,
      "##ديين": 8289,
      "اغس": 8290,
      "##شم": 8291,
      "مستخدم": 8292,
      "التامين": 8293,
      "نخ": 8294,
      "مستقلة": 8295,
      "##وعي": 8296,
      "##افلة": 8297,
      "pk": 8298,
      "##ابا": 8299,
      "الشافعي": 8300,
      "وعلي": 8301,
      "والعم": 8302,
      "التداول": 8303,
      "حادث": 8304,
      "قوي": 8305,
      "##ناسبات": 8306,
      "ورشة": 8307,
      "##قلين": 8308,
      "ومد": 8309,
      "الحرة": 8310,
      "العثور": 8311,
      "باذن": 8312,
      "الجزايرية": 8313,
      "الممارسة": 8314,
      "تنمية": 8315,
      "استقبال": 8316,
      "المقدمة": 8317,
      "##باس": 8318,
      "##قيقات": 8319,
      "الشكل": 8320,
      "##كاوى": 8321,
      "##ows": 8322,
      "##وفية": 8323,
      "التنا": 8324,
      "doctor": 8325,
      "ادا": 8326,
      "يعلن": 8327,
      "لاحظنا": 8328,
      "ديكور": 8329,
      "##بناء": 8330,
      "##يء": 8331,
      "بعث": 8332,
      "تذ": 8333,
      "لز": 8334,
      "العش": 8335,
      "جرى": 8336,
      "##امبيا": 8337,
      "وصفات": 8338,
      "مرحبا": 8339,
      "يكتب": 8340,
      "##ندات": 8341,
      "##الع": 8342,
      "الوكالة": 8343,
      "نقابة": 8344,
      "##وندي": 8345,
      "##ويسرا": 8346,
      "غالبا": 8347,
      "القيمة": 8348,
      "wind": 8349,
      "يخص": 8350,
      "عزل": 8351,
      "اطراف": 8352,
      "وليد": 8353,
      "بوكس": 8354,
      "لون": 8355,
      "##وغان": 8356,
      "##هدد": 8357,
      "##iy": 8358,
      "السلم": 8359,
      "##se": 8360,
      "250": 8361,
      "الترتيب": 8362,
      "##وووو": 8363,
      "شخصيات": 8364,
      "زوجته": 8365,
      "##رافيكس": 8366,
      "نعمل": 8367,
      "##تس": 8368,
      "ليكون": 8369,
      "##عيين": 8370,
      "مسابقة": 8371,
      "صفحات": 8372,
      "الراحل": 8373,
      "الملت": 8374,
      "سوم": 8375,
      "التوظيف": 8376,
      "وغيرهم": 8377,
      "تراجع": 8378,
      "البراز": 8379,
      "##ابق": 8380,
      "بمنطقة": 8381,
      "##عاف": 8382,
      "2005": 8383,
      "نموذج": 8384,
      "الصحراء": 8385,
      "##la": 8386,
      "المميزة": 8387,
      "سج": 8388,
      "تكت": 8389,
      "السحر": 8390,
      "شديد": 8391,
      "الحاسب": 8392,
      "194": 8393,
      "##رجل": 8394,
      "الزجاج": 8395,
      "اقيم": 8396,
      "وقبل": 8397,
      "فحص": 8398,
      "المصرى": 8399,
      "السيطرة": 8400,
      "عيش": 8401,
      "المرك": 8402,
      "والصحة": 8403,
      "والتم": 8404,
      "مديرية": 8405,
      "المرور": 8406,
      "الاطعمة": 8407,
      "##عوة": 8408,
      "41": 8409,
      "اثبت": 8410,
      "بقية": 8411,
      "الجبل": 8412,
      "موريت": 8413,
      "الفجر": 8414,
      "dv": 8415,
      "الجهود": 8416,
      "كاز": 8417,
      "##صات": 8418,
      "تبقى": 8419,
      "العمالة": 8420,
      "السكان": 8421,
      "##خام": 8422,
      "اعظم": 8423,
      "باتجاه": 8424,
      "الابتدايي": 8425,
      "مجمع": 8426,
      "للسلع": 8427,
      "الريس": 8428,
      "##سته": 8429,
      "الافريقية": 8430,
      "ناش": 8431,
      "لصالح": 8432,
      "واول": 8433,
      "تول": 8434,
      "النقاش": 8435,
      "net": 8436,
      "##شستر": 8437,
      "الفرصة": 8438,
      "المستعرض": 8439,
      "نونبر": 8440,
      "خي": 8441,
      "البلدان": 8442,
      "تشهد": 8443,
      "دوما": 8444,
      "يدفع": 8445,
      "الطبقة": 8446,
      "مسجد": 8447,
      "الفنانة": 8448,
      "لتطوير": 8449,
      "##لقى": 8450,
      "الماس": 8451,
      "الدينار": 8452,
      "نهاي": 8453,
      "المجانية": 8454,
      "السريع": 8455,
      "بجدة": 8456,
      "نير": 8457,
      "للتح": 8458,
      "المنازل": 8459,
      "درس": 8460,
      "##هرات": 8461,
      "قن": 8462,
      "الاحيان": 8463,
      "زال": 8464,
      "##زلي": 8465,
      "##روك": 8466,
      "الطف": 8467,
      "استاذ": 8468,
      "الانجليزي": 8469,
      "قمة": 8470,
      "##صين": 8471,
      "جريمة": 8472,
      "غاية": 8473,
      "جراحة": 8474,
      "السبع": 8475,
      "فري": 8476,
      "##ive": 8477,
      "ينظر": 8478,
      "الثامنة": 8479,
      "ثبت": 8480,
      "##ايمان": 8481,
      "##uc": 8482,
      "##اتيح": 8483,
      "اختلاف": 8484,
      "##هو": 8485,
      "بطلب": 8486,
      "الوظيفة": 8487,
      "اليمنية": 8488,
      "ايت": 8489,
      "الشير": 8490,
      "قياس": 8491,
      "هواة": 8492,
      "##ثى": 8493,
      "تتضمن": 8494,
      "القم": 8495,
      "موسم": 8496,
      "الامل": 8497,
      "##شيح": 8498,
      "##تام": 8499,
      "##ينغ": 8500,
      "تبين": 8501,
      "بجودة": 8502,
      "##نته": 8503,
      "##ظاهر": 8504,
      "خالية": 8505,
      "how": 8506,
      "يملك": 8507,
      "ويجب": 8508,
      "احتجاج": 8509,
      "احترام": 8510,
      "مستعرضا": 8511,
      "الشبكات": 8512,
      "ببعض": 8513,
      "##اتذة": 8514,
      "##بغ": 8515,
      "##ولو": 8516,
      "تمتلك": 8517,
      "حتي": 8518,
      "الادبي": 8519,
      "مدخل": 8520,
      "##ازم": 8521,
      "خض": 8522,
      "السلاح": 8523,
      "##ate": 8524,
      "قضاء": 8525,
      "يومي": 8526,
      "اكتشاف": 8527,
      "تربية": 8528,
      "النووي": 8529,
      "انخفاض": 8530,
      "القرية": 8531,
      "حذ": 8532,
      "##شيا": 8533,
      "جراح": 8534,
      "اتجاه": 8535,
      "فيقول": 8536,
      "سيرفر": 8537,
      "القن": 8538,
      "الاوضاع": 8539,
      "price": 8540,
      "شريك": 8541,
      "وتابع": 8542,
      "مترجمة": 8543,
      "مناس": 8544,
      "توفي": 8545,
      "صفوف": 8546,
      "##van": 8547,
      "دوا": 8548,
      "النات": 8549,
      "##ity": 8550,
      "المذكور": 8551,
      "لصاحب": 8552,
      "لابن": 8553,
      "تفت": 8554,
      "عظ": 8555,
      "العالية": 8556,
      "متجر": 8557,
      "##وفيق": 8558,
      "يسهل": 8559,
      "##افيه": 8560,
      "تاسيس": 8561,
      "##roid": 8562,
      "##ركه": 8563,
      "الشروط": 8564,
      "المقالات": 8565,
      "الولادة": 8566,
      "الجدد": 8567,
      "اجزاء": 8568,
      "ندوة": 8569,
      "اسرار": 8570,
      "والمه": 8571,
      "المرش": 8572,
      "##اهير": 8573,
      "بدي": 8574,
      "##تمدة": 8575,
      "خف": 8576,
      "قليلة": 8577,
      "قوى": 8578,
      "كمبيوتر": 8579,
      "المرح": 8580,
      "النياب": 8581,
      "جديدا": 8582,
      "الحدث": 8583,
      "المتهم": 8584,
      "امتيازات": 8585,
      "##زنة": 8586,
      "وسب": 8587,
      "##شرت": 8588,
      "##عها": 8589,
      "مرسوم": 8590,
      "الصوتية": 8591,
      "يتضمن": 8592,
      "المستعرضات": 8593,
      "##وانب": 8594,
      "تاليف": 8595,
      "بالرياض0557824327": 8596,
      "تعتمد": 8597,
      "##لزمات": 8598,
      "مرف": 8599,
      "جزءا": 8600,
      "##ناها": 8601,
      "الجلوكوما": 8602,
      "انتم": 8603,
      "استراتيجية": 8604,
      "الصيانة": 8605,
      "الذاتية": 8606,
      "الصادق": 8607,
      "سابقة": 8608,
      "##خمة": 8609,
      "##ang": 8610,
      "بلاده": 8611,
      "##لاقات": 8612,
      "حقيقية": 8613,
      "انباء": 8614,
      "بقسم": 8615,
      "اعلامية": 8616,
      "##ry": 8617,
      "القاعدة": 8618,
      "الاشارة": 8619,
      "a7": 8620,
      "un": 8621,
      "مارك": 8622,
      "فية": 8623,
      "عمران": 8624,
      "بيوت": 8625,
      "مفهوم": 8626,
      "طبيعية": 8627,
      "windows": 8628,
      "مطلوب": 8629,
      "facebook": 8630,
      "الشبكة": 8631,
      "للشحن": 8632,
      "tim": 8633,
      "رسميا": 8634,
      "كوا": 8635,
      "رون": 8636,
      "فكيف": 8637,
      "##ادن": 8638,
      "خاض": 8639,
      "منصة": 8640,
      "الاردني": 8641,
      "سكر": 8642,
      "##يدات": 8643,
      "معركة": 8644,
      "الاطلاق": 8645,
      "قاسم": 8646,
      "النجم": 8647,
      "##ذاكرة": 8648,
      "الصرف": 8649,
      "##زو": 8650,
      "##ذاك": 8651,
      "##sat": 8652,
      "وهنا": 8653,
      "عايدا": 8654,
      "الرش": 8655,
      "رياسة": 8656,
      "مقاول": 8657,
      "mp3": 8658,
      "##صية": 8659,
      "وبن": 8660,
      "النيابة": 8661,
      "##فرقة": 8662,
      "اجنبية": 8663,
      "جملة": 8664,
      "##اقم": 8665,
      "للمشاركة": 8666,
      "اسفل": 8667,
      "لفظ": 8668,
      "##دمير": 8669,
      "عملا": 8670,
      "المنتدي": 8671,
      "السودانية": 8672,
      "##ide": 8673,
      "الثابت": 8674,
      "والعالمية": 8675,
      "##امرة": 8676,
      "الاسماء": 8677,
      "hot": 8678,
      "65": 8679,
      "هندسة": 8680,
      "للصف": 8681,
      "الخلق": 8682,
      "ag": 8683,
      "قدمت": 8684,
      "يده": 8685,
      "##اريو": 8686,
      "مصنع": 8687,
      "##وقرا": 8688,
      "##ast": 8689,
      "##ربط": 8690,
      "للمت": 8691,
      "الساحة": 8692,
      "دام": 8693,
      "تقبل": 8694,
      "qu": 8695,
      "##عال": 8696,
      "##ash": 8697,
      "عددال": 8698,
      "خروج": 8699,
      "##لاميذ": 8700,
      "ماد": 8701,
      "هما": 8702,
      "الشخصي": 8703,
      "الفضاء": 8704,
      "best": 8705,
      "تكنولوجيا": 8706,
      "##ارم": 8707,
      "اللاعبين": 8708,
      "تكوين": 8709,
      "بدل": 8710,
      "##حدات": 8711,
      "الجنوبي": 8712,
      "هيل": 8713,
      "النجوم": 8714,
      "can": 8715,
      "يلزم": 8716,
      "مدين": 8717,
      "الصديق": 8718,
      "الانص": 8719,
      "دولية": 8720,
      "##كنة": 8721,
      "فقدان": 8722,
      "الاعم": 8723,
      "المستشفى": 8724,
      "مساعدة": 8725,
      "فكل": 8726,
      "##ودى": 8727,
      "وسم": 8728,
      "##bc": 8729,
      "##مدينة": 8730,
      "للاسف": 8731,
      "ملت": 8732,
      "واللودرات": 8733,
      "مبلغ": 8734,
      "البلدين": 8735,
      "الجميلة": 8736,
      "ولكنها": 8737,
      "سلطة": 8738,
      "الانمي": 8739,
      "حرية": 8740,
      "الكتايب": 8741,
      "##وقوف": 8742,
      "الخلايا": 8743,
      "واغ": 8744,
      "prk": 8745,
      "تحصل": 8746,
      "احلى": 8747,
      "بتعديل": 8748,
      "ميش": 8749,
      "##ابرات": 8750,
      "بالاح": 8751,
      "ورق": 8752,
      "والته": 8753,
      "قررت": 8754,
      "الافريقي": 8755,
      "تسعى": 8756,
      "بمت": 8757,
      "ربه": 8758,
      "زواج": 8759,
      "والذين": 8760,
      "فقلت": 8761,
      "المستشار": 8762,
      "النهايي": 8763,
      "##ـه": 8764,
      "##تحان": 8765,
      "ماية": 8766,
      "ادلب": 8767,
      "الكويتية": 8768,
      "اغنية": 8769,
      "##رطوم": 8770,
      "قدرة": 8771,
      "موز": 8772,
      "تعاون": 8773,
      "سعودي": 8774,
      "مربع": 8775,
      "والمنا": 8776,
      "الاندرويد": 8777,
      "فنادق": 8778,
      "##تيال": 8779,
      "دونالد": 8780,
      "عاجل": 8781,
      "نبي": 8782,
      "##ef": 8783,
      "والمف": 8784,
      "النرويج": 8785,
      "ينتظر": 8786,
      "كمية": 8787,
      "300": 8788,
      "تقد": 8789,
      "##بون": 8790,
      "المسيحية": 8791,
      "تصرف": 8792,
      "توب": 8793,
      "##ستور": 8794,
      "اتخذ": 8795,
      "حصلت": 8796,
      "جدول": 8797,
      "يقولون": 8798,
      "الحقيقية": 8799,
      "وظيفة": 8800,
      "اهالي": 8801,
      "##ابين": 8802,
      "##جليزية": 8803,
      "##lo": 8804,
      "مسار": 8805,
      "الجلسة": 8806,
      "وبرامج": 8807,
      "منتصف": 8808,
      "##ركان": 8809,
      "الثامن": 8810,
      "##ضمنة": 8811,
      "الفار": 8812,
      "يورو": 8813,
      "تطور": 8814,
      "البصري": 8815,
      "مفر": 8816,
      "##ريبي": 8817,
      "##احات": 8818,
      "تودي": 8819,
      "لتقديم": 8820,
      "مشاهد": 8821,
      "مدرب": 8822,
      "ظهرت": 8823,
      "الهر": 8824,
      "صدق": 8825,
      "##ابعين": 8826,
      "##لاقا": 8827,
      "لزي": 8828,
      "الفكرية": 8829,
      "حصريا": 8830,
      "الاقليمي": 8831,
      "##نها": 8832,
      "تسليم": 8833,
      "زوار": 8834,
      "محلية": 8835,
      "##عدل": 8836,
      "android": 8837,
      "حديثة": 8838,
      "اشارة": 8839,
      "النهايية": 8840,
      "ويندوز": 8841,
      "##یة": 8842,
      "الافراد": 8843,
      "بانت": 8844,
      "وبل": 8845,
      "ويق": 8846,
      "تبادل": 8847,
      "51": 8848,
      "##صيد": 8849,
      "خاط": 8850,
      "تحول": 8851,
      "شرب": 8852,
      "اسلوب": 8853,
      "كولوم": 8854,
      "اصدر": 8855,
      "شهدت": 8856,
      "لدعم": 8857,
      "خلفية": 8858,
      "واخذ": 8859,
      "بسهولة": 8860,
      "الزوجية": 8861,
      "بارك": 8862,
      "##ite": 8863,
      "##ديف": 8864,
      "##وكل": 8865,
      "تبلغ": 8866,
      "القرض": 8867,
      "حميد": 8868,
      "##رجال": 8869,
      "النفسية": 8870,
      "فارس": 8871,
      "منصب": 8872,
      "##بيعة": 8873,
      "الهجوم": 8874,
      "فلان": 8875,
      "##هوة": 8876,
      "الزاير": 8877,
      "ورحمة": 8878,
      "لطب": 8879,
      "##end": 8880,
      "صدي": 8881,
      "الميت": 8882,
      "الشهداء": 8883,
      "واخر": 8884,
      "محاضرات": 8885,
      "معاوية": 8886,
      "الايطالي": 8887,
      "المسافرين": 8888,
      "الزمالك": 8889,
      "الموظفين": 8890,
      "بجد": 8891,
      "حمام": 8892,
      "سيع": 8893,
      "الذهاب": 8894,
      "تمر": 8895,
      "ودعم": 8896,
      "يثبت": 8897,
      "##ادور": 8898,
      "مشاركت": 8899,
      "المتقدمة": 8900,
      "##27": 8901,
      "##قاب": 8902,
      "الخيارات": 8903,
      "الاحتفال": 8904,
      "للمرة": 8905,
      "اوليك": 8906,
      "انطلاق": 8907,
      "فاز": 8908,
      "التخصص": 8909,
      "بوجود": 8910,
      "بتقديم": 8911,
      "##88": 8912,
      "##لايت": 8913,
      "##روري": 8914,
      "##ium": 8915,
      "المصريين": 8916,
      "الاخلاق": 8917,
      "وادارة": 8918,
      "عوض": 8919,
      "لمزيد": 8920,
      "150": 8921,
      "قيد": 8922,
      "المشورة": 8923,
      "ليلا": 8924,
      "##روه": 8925,
      "نصايح": 8926,
      "بالاش": 8927,
      "ومص": 8928,
      "الفنون": 8929,
      "محدودة": 8930,
      "لحم": 8931,
      "##مه": 8932,
      "بدعم": 8933,
      "الدعاء": 8934,
      "الفرا": 8935,
      "##كييف": 8936,
      "##اهيم": 8937,
      "ناج": 8938,
      "الازياء": 8939,
      "فنحن": 8940,
      "##ردود": 8941,
      "خارجية": 8942,
      "ابتدايي": 8943,
      "##ذات": 8944,
      "##ولاء": 8945,
      "تكر": 8946,
      "الجريمة": 8947,
      "##عتبر": 8948,
      "وقعت": 8949,
      "مستعملة": 8950,
      "##man": 8951,
      "تتميز": 8952,
      "##اعه": 8953,
      "##وتو": 8954,
      "##ile": 8955,
      "##فيق": 8956,
      "مسابقات": 8957,
      "مبادرة": 8958,
      "فيس": 8959,
      "تكشف": 8960,
      "##ولايات": 8961,
      "##اطعة": 8962,
      "الاحص": 8963,
      "سعادة": 8964,
      "##شرون": 8965,
      "##يمياء": 8966,
      "ثمن": 8967,
      "رض": 8968,
      "##ركاته": 8969,
      "سرعة": 8970,
      "الشعوب": 8971,
      "وكما": 8972,
      "المكون": 8973,
      "##بز": 8974,
      "يعرض": 8975,
      "لمعرفة": 8976,
      "البو": 8977,
      "##جهيز": 8978,
      "البشرة": 8979,
      "تزيد": 8980,
      "get": 8981,
      "والو": 8982,
      "##واخر": 8983,
      "##حركة": 8984,
      "الدراسية": 8985,
      "شعبة": 8986,
      "ظروف": 8987,
      "##sh": 8988,
      "والمقالات": 8989,
      "##ove": 8990,
      "علامات": 8991,
      "##زيمة": 8992,
      "تهدف": 8993,
      "اسامة": 8994,
      "المذكورة": 8995,
      "##شرطة": 8996,
      "##وكي": 8997,
      "تصبح": 8998,
      "##وسى": 8999,
      "سامسونج": 9000,
      "اهتم": 9001,
      "ارم": 9002,
      "مهارات": 9003,
      "عمال": 9004,
      "##زون": 9005,
      "لمست": 9006,
      "والارض": 9007,
      "معلم": 9008,
      "واخرج": 9009,
      "جيل": 9010,
      "خطاب": 9011,
      "وعلم": 9012,
      "##وايز": 9013,
      "advan": 9014,
      "خدم": 9015,
      "قاتل": 9016,
      "mot": 9017,
      "راسه": 9018,
      "##وتك": 9019,
      "متك": 9020,
      "هجوم": 9021,
      "للمع": 9022,
      "##يبة": 9023,
      "المطار": 9024,
      "صحفي": 9025,
      "##ريان": 9026,
      "نيج": 9027,
      "وتك": 9028,
      "السعادة": 9029,
      "اثنين": 9030,
      "عظيم": 9031,
      "##ach": 9032,
      "المحددة": 9033,
      "طعام": 9034,
      "جزي": 9035,
      "اسس": 9036,
      "لانهم": 9037,
      "##ادا": 9038,
      "للاخ": 9039,
      "##وانا": 9040,
      "af": 9041,
      "زمان": 9042,
      "وتقديم": 9043,
      "السادسة": 9044,
      "technology": 9045,
      "ليع": 9046,
      "حلقات": 9047,
      "الكوك": 9048,
      "##ib": 9049,
      "##aw": 9050,
      "يصح": 9051,
      "تبر": 9052,
      "تقلي": 9053,
      "التفسير": 9054,
      "الاشراف": 9055,
      "جوز": 9056,
      "الكث": 9057,
      "تقت": 9058,
      "لتس": 9059,
      "my": 9060,
      "وتخ": 9061,
      "الاديان": 9062,
      "فليس": 9063,
      "الزم": 9064,
      "نشرت": 9065,
      "##ian": 9066,
      "##اشيد": 9067,
      "قصيرة": 9068,
      "الالتزام": 9069,
      "مدر": 9070,
      "الشهادة": 9071,
      "كوب": 9072,
      "محلات": 9073,
      "##بى": 9074,
      "الثنايية": 9075,
      "خلاله": 9076,
      "##ابد": 9077,
      "الجواب": 9078,
      "الطلبات": 9079,
      "##حسن": 9080,
      "موسكو": 9081,
      "##ستون": 9082,
      "الحن": 9083,
      "##ـس": 9084,
      "كو": 9085,
      "الزراعية": 9086,
      "advanced": 9087,
      "جاك": 9088,
      "نك": 9089,
      "وزراء": 9090,
      "الكويتي": 9091,
      "##70": 9092,
      "استع": 9093,
      "##فسة": 9094,
      "##داولة": 9095,
      "##جهود": 9096,
      "يكت": 9097,
      "##ــدى": 9098,
      "##ـــم": 9099,
      "per": 9100,
      "دينا": 9101,
      "الذهبي": 9102,
      "تخفيض": 9103,
      "تختلف": 9104,
      "فبر": 9105,
      "انزل": 9106,
      "كات": 9107,
      "سيناء": 9108,
      "##صاد": 9109,
      "بقيمة": 9110,
      "تتبع": 9111,
      "والتنمية": 9112,
      "لقب": 9113,
      "المدرسية": 9114,
      "المتنوعة": 9115,
      "اكسسوارات": 9116,
      "المية": 9117,
      "##جلب": 9118,
      "بيل": 9119,
      "الخرطوم": 9120,
      "##عدات": 9121,
      "##هوري": 9122,
      "المتبقي": 9123,
      "عزيزي": 9124,
      "التدخل": 9125,
      "المكرمة": 9126,
      "القلوب": 9127,
      "جواب": 9128,
      "الاختيار": 9129,
      "المقرر": 9130,
      "دخلت": 9131,
      "##ذير": 9132,
      "الشراء": 9133,
      "##ll": 9134,
      "##على": 9135,
      "طبيعة": 9136,
      "واحة": 9137,
      "البابا": 9138,
      "الاحياء": 9139,
      "لاجل": 9140,
      "سلاح": 9141,
      "##لط": 9142,
      "وثق": 9143,
      "##يتك": 9144,
      "مواعيد": 9145,
      "سيدنا": 9146,
      "روزن": 9147,
      "عاصمة": 9148,
      "الحجر": 9149,
      "الكتروني": 9150,
      "##عارف": 9151,
      "ومج": 9152,
      "رضا": 9153,
      "##ايته": 9154,
      "الوثايق": 9155,
      "ازهر": 9156,
      "##ـــات": 9157,
      "العا": 9158,
      "##رتون": 9159,
      "الزمان": 9160,
      "جرايم": 9161,
      "لاك": 9162,
      "تسي": 9163,
      "اللعب": 9164,
      "ed": 9165,
      "##ادير": 9166,
      "تضمن": 9167,
      "##قان": 9168,
      "المالكي": 9169,
      "##ابون": 9170,
      "ايفون": 9171,
      "##بيدات": 9172,
      "ولان": 9173,
      "الاخرة": 9174,
      "الشيف": 9175,
      "##وفرة": 9176,
      "هج": 9177,
      "##سابقات": 9178,
      "ودي": 9179,
      "واصل": 9180,
      "##وقية": 9181,
      "يشهد": 9182,
      "فورا": 9183,
      "##وقيع": 9184,
      "يعبر": 9185,
      "الرقمية": 9186,
      "php": 9187,
      "الطيبة": 9188,
      "الاخوة": 9189,
      "المعالج": 9190,
      "عدا": 9191,
      "الحملة": 9192,
      "##انغ": 9193,
      "اقتصادية": 9194,
      "##اضل": 9195,
      "الطايرة": 9196,
      "الالوان": 9197,
      "الخبرة": 9198,
      "استد": 9199,
      "نيويورك": 9200,
      "##يمون": 9201,
      "جفعات": 9202,
      "الادوية": 9203,
      "موجودة": 9204,
      "الاثر": 9205,
      "العميل": 9206,
      "قمت": 9207,
      "##فاهم": 9208,
      "معدل": 9209,
      "العفش": 9210,
      "كرا": 9211,
      "##يدة": 9212,
      "##35": 9213,
      "العثم": 9214,
      "النخ": 9215,
      "باز": 9216,
      "طبخ": 9217,
      "مارت": 9218,
      "86": 9219,
      "حروف": 9220,
      "صفة": 9221,
      "يضم": 9222,
      "##عودية": 9223,
      "##نياهو": 9224,
      "يسعى": 9225,
      "اعتبر": 9226,
      "##ix": 9227,
      "العج": 9228,
      "العاص": 9229,
      "الصناعة": 9230,
      "##ايس": 9231,
      "الشرقي": 9232,
      "الادوات": 9233,
      "يقف": 9234,
      "##ترط": 9235,
      "##كمبيوتر": 9236,
      "يكشف": 9237,
      "رياضية": 9238,
      "بمست": 9239,
      "##اعداد": 9240,
      "##لاغ": 9241,
      "القس": 9242,
      "youtube": 9243,
      "تضع": 9244,
      "المطر": 9245,
      "فلاشات": 9246,
      "عاط": 9247,
      "نقد": 9248,
      "##بوك": 9249,
      "صحية": 9250,
      "مقاطع": 9251,
      "ايلول": 9252,
      "وثلاث": 9253,
      "واز": 9254,
      "con": 9255,
      "التاسع": 9256,
      "مستشار": 9257,
      "سبحان": 9258,
      "قطعة": 9259,
      "سبعة": 9260,
      "تام": 9261,
      "##قتراحات": 9262,
      "التوفر": 9263,
      "دورا": 9264,
      "حينما": 9265,
      "الاسبانية": 9266,
      "بنظام": 9267,
      "روزنامة": 9268,
      "##مبي": 9269,
      "بقيادة": 9270,
      "الثانوي": 9271,
      "##itter": 9272,
      "##غانستان": 9273,
      "##راوي": 9274,
      "ابتداء": 9275,
      "احم": 9276,
      "العالمين": 9277,
      "ميديا": 9278,
      "متف": 9279,
      "##وازن": 9280,
      "العباس": 9281,
      "الملايكة": 9282,
      "لغير": 9283,
      "وجهه": 9284,
      "مراحل": 9285,
      "عنهما": 9286,
      "بالتع": 9287,
      "الفير": 9288,
      "طبعا": 9289,
      "البرازيل": 9290,
      "بوليف": 9291,
      "المنظمات": 9292,
      "زياد": 9293,
      "الديمقراطي": 9294,
      "ومم": 9295,
      "اعتماد": 9296,
      "الفية": 9297,
      "الضر": 9298,
      "##ويف": 9299,
      "المعنية": 9300,
      "الشورى": 9301,
      "الاحتياجات": 9302,
      "##اورة": 9303,
      "##هيية": 9304,
      "واجب": 9305,
      "الشيع": 9306,
      "باخ": 9307,
      "نعرف": 9308,
      "متضمنة": 9309,
      "راح": 9310,
      "المستمر": 9311,
      "##رحات": 9312,
      "الاعتراف": 9313,
      "الحارث": 9314,
      "المخدرات": 9315,
      "بخلاف": 9316,
      "شهور": 9317,
      "شاه": 9318,
      "##ونلاين": 9319,
      "مـ": 9320,
      "فيسبوك": 9321,
      "والعلم": 9322,
      "التميز": 9323,
      "وسيلة": 9324,
      "لنت": 9325,
      "eg": 9326,
      "المتن": 9327,
      "ورسوله": 9328,
      "##io": 9329,
      "اتى": 9330,
      "##ld": 9331,
      "ماج": 9332,
      "مسجل": 9333,
      "وقدم": 9334,
      "سويسرا": 9335,
      "دايم": 9336,
      "لضمان": 9337,
      "بيية": 9338,
      "##av": 9339,
      "شكر": 9340,
      "والمد": 9341,
      "انتخ": 9342,
      "المسلمون": 9343,
      "مبت": 9344,
      "##ليلة": 9345,
      "المتوقع": 9346,
      "dm": 9347,
      "##بدا": 9348,
      "##ph": 9349,
      "##رور": 9350,
      "ميات": 9351,
      "المعا": 9352,
      "معي": 9353,
      "البوس": 9354,
      "عقود": 9355,
      "الاهداف": 9356,
      "اسرع": 9357,
      "المبت": 9358,
      "كسل": 9359,
      "موسيقى": 9360,
      "لتكون": 9361,
      "حجز": 9362,
      "الحجم": 9363,
      "التصاميم": 9364,
      "والخبرة": 9365,
      "المحافظات": 9366,
      "##dr": 9367,
      "العاط": 9368,
      "تقدير": 9369,
      "المثل": 9370,
      "يسبب": 9371,
      "الربع": 9372,
      "الواقعة": 9373,
      "ابيب": 9374,
      "للدولة": 9375,
      "مخالف": 9376,
      "سد": 9377,
      "بالتسجيل": 9378,
      "##ـــام": 9379,
      "##تة": 9380,
      "المشاركين": 9381,
      "##هاجرين": 9382,
      "ترجم": 9383,
      "اضافية": 9384,
      "العشرين": 9385,
      "الشمالي": 9386,
      "معالج": 9387,
      "اردوغان": 9388,
      "فرج": 9389,
      "##يتهم": 9390,
      "بسيطة": 9391,
      "طاير": 9392,
      "امرا": 9393,
      "سيب": 9394,
      "الموج": 9395,
      "يرجع": 9396,
      "وقل": 9397,
      "الكف": 9398,
      "سلوك": 9399,
      "صرح": 9400,
      "##ربوي": 9401,
      "القايد": 9402,
      "والده": 9403,
      "بمكة": 9404,
      "##بدال": 9405,
      "رصد": 9406,
      "##ريبات": 9407,
      "##فلات": 9408,
      "##44": 9409,
      "الوردية": 9410,
      "##وتين": 9411,
      "حافظ": 9412,
      "احلام": 9413,
      "##حى": 9414,
      "سوا": 9415,
      "لمواجهة": 9416,
      "كير": 9417,
      "مري": 9418,
      "##سيك": 9419,
      "طبع": 9420,
      "تنزيل": 9421,
      "##اتك": 9422,
      "مسيرة": 9423,
      "رحلات": 9424,
      "##تهما": 9425,
      "لعم": 9426,
      "##لندية": 9427,
      "والتى": 9428,
      "الاعداد": 9429,
      "##رضى": 9430,
      "وعليه": 9431,
      "للامم": 9432,
      "##سس": 9433,
      "الهج": 9434,
      "ورغم": 9435,
      "البالغ": 9436,
      "حلف": 9437,
      "الحديدة": 9438,
      "شا": 9439,
      "السوداء": 9440,
      "قيمتها": 9441,
      "يصدر": 9442,
      "الانشطة": 9443,
      "ابنه": 9444,
      "الدروس": 9445,
      "ايط": 9446,
      "##az": 9447,
      "نض": 9448,
      "الفلك": 9449,
      "ويقال": 9450,
      "امنوا": 9451,
      "فانك": 9452,
      "##بيس": 9453,
      "الخص": 9454,
      "الصدر": 9455,
      "الاستقبال": 9456,
      "المحتلة": 9457,
      "بنفسه": 9458,
      "وخصوص": 9459,
      "##غد": 9460,
      "وحلول": 9461,
      "##كاية": 9462,
      "بفتح": 9463,
      "روابط": 9464,
      "زح": 9465,
      "المجالس": 9466,
      "##طريرك": 9467,
      "اسود": 9468,
      "اقرار": 9469,
      "الكرد": 9470,
      "السرطان": 9471,
      "التقليدية": 9472,
      "##hone": 9473,
      "كلي": 9474,
      "الحرام": 9475,
      "قصد": 9476,
      "يشارك": 9477,
      "##tion": 9478,
      "لاخ": 9479,
      "الزيتون": 9480,
      "الخطا": 9481,
      "القدر": 9482,
      "واسع": 9483,
      "##ثمرين": 9484,
      "الاستقرار": 9485,
      "المهني": 9486,
      "##36": 9487,
      "امنية": 9488,
      "تاخذ": 9489,
      "الالب": 9490,
      "الطلاق": 9491,
      "صم": 9492,
      "llc": 9493,
      "##علة": 9494,
      "فتاة": 9495,
      "مستعارة": 9496,
      "محددة": 9497,
      "حاتم": 9498,
      "يعاني": 9499,
      "الصل": 9500,
      "بوضع": 9501,
      "رابطة": 9502,
      "تعبير": 9503,
      "##يلان": 9504,
      "##لاجات": 9505,
      "واهم": 9506,
      "التخلص": 9507,
      "##اشي": 9508,
      "فواد": 9509,
      "##حوا": 9510,
      "تمام": 9511,
      "يوف": 9512,
      "والاجتماعية": 9513,
      "gu": 9514,
      "##غيرات": 9515,
      "##eg": 9516,
      "الضم": 9517,
      "اوكرانيا": 9518,
      "مبيعات": 9519,
      "اثيو": 9520,
      "التوحيد": 9521,
      "هادي": 9522,
      "صدور": 9523,
      "بورت": 9524,
      "للمش": 9525,
      "مستح": 9526,
      "الاجواء": 9527,
      "الاسر": 9528,
      "للاج": 9529,
      "##ـد": 9530,
      "ملاحظة": 9531,
      "##زاونلاين": 9532,
      "اللبنانيين": 9533,
      "##هنة": 9534,
      "laz": 9535,
      "##سال": 9536,
      "ليون": 9537,
      "الجهة": 9538,
      "الحلول": 9539,
      "استم": 9540,
      "الاداب": 9541,
      "الطرفين": 9542,
      "بمشاركة": 9543,
      "اشرف": 9544,
      "السجن": 9545,
      "سودانيزاونلاين": 9546,
      "يمر": 9547,
      "##برات": 9548,
      "الاقليمية": 9549,
      "المنبر": 9550,
      "سخ": 9551,
      "الينا": 9552,
      "التطبيقات": 9553,
      "استرالي": 9554,
      "gr": 9555,
      "##صلي": 9556,
      "القرارات": 9557,
      "التحت": 9558,
      "سهلة": 9559,
      "mu": 9560,
      "كرونة": 9561,
      "والبحث": 9562,
      "فنان": 9563,
      "والنق": 9564,
      "##حكم": 9565,
      "قصايد": 9566,
      "اشعار": 9567,
      "لاق": 9568,
      "مصرية": 9569,
      "بمحافظة": 9570,
      "الخطوط": 9571,
      "الشرك": 9572,
      "محرك": 9573,
      "ساير": 9574,
      "حشرات": 9575,
      "وبناء": 9576,
      "يشعر": 9577,
      "الرياض0557824327نقل": 9578,
      "##ant": 9579,
      "ومنا": 9580,
      "موق": 9581,
      "الصحيفة": 9582,
      "المراه": 9583,
      "ومنهم": 9584,
      "ومق": 9585,
      "وعرض": 9586,
      "للاعضاء": 9587,
      "نماذج": 9588,
      "يتحمل": 9589,
      "##ربول": 9590,
      "الة": 9591,
      "الواردة": 9592,
      "ريف": 9593,
      "##ضلات": 9594,
      "iptv": 9595,
      "رسمية": 9596,
      "الاجهزه": 9597,
      "مجموع": 9598,
      "بقدر": 9599,
      "##تمرات": 9600,
      "والمجتمع": 9601,
      "لادارة": 9602,
      "الوقاية": 9603,
      "اصدق": 9604,
      "للناس": 9605,
      "والمخ": 9606,
      "امة": 9607,
      "العناصر": 9608,
      "الية": 9609,
      "##طبق": 9610,
      "##دران": 9611,
      "تعني": 9612,
      "راشد": 9613,
      "لخدمة": 9614,
      "قادرة": 9615,
      "حقي": 9616,
      "عمره": 9617,
      "الشمسية": 9618,
      "سايق": 9619,
      "##نيه": 9620,
      "مفتاح": 9621,
      "##هلاك": 9622,
      "اشياء": 9623,
      "الفلبينمدينة": 9624,
      "الخطيب": 9625,
      "اهله": 9626,
      "المتداولة": 9627,
      "##ly": 9628,
      "الشان": 9629,
      "النصف": 9630,
      "نهايي": 9631,
      "التجربة": 9632,
      "المخاطر": 9633,
      "والسنة": 9634,
      "تاب": 9635,
      "يستحق": 9636,
      "الشخصيات": 9637,
      "##77": 9638,
      "twitter": 9639,
      "##ong": 9640,
      "والبي": 9641,
      "الكور": 9642,
      "خبرة": 9643,
      "المفتوحة": 9644,
      "ابد": 9645,
      "الروبل": 9646,
      "عكس": 9647,
      "الوفد": 9648,
      "المجموعات": 9649,
      "تاش": 9650,
      "مجددا": 9651,
      "يواجه": 9652,
      "والمنتجات": 9653,
      "##oft": 9654,
      "##طبيق": 9655,
      "احتفال": 9656,
      "كا": 9657,
      "##لاحظات": 9658,
      "ناق": 9659,
      "الكيمي": 9660,
      "الزيارة": 9661,
      "##الن": 9662,
      "الشديد": 9663,
      "التل": 9664,
      "فنية": 9665,
      "ايات": 9666,
      "بكثير": 9667,
      "##زان": 9668,
      "جنب": 9669,
      "جبهة": 9670,
      "كونه": 9671,
      "للكبار": 9672,
      "سحب": 9673,
      "اعلاه": 9674,
      "المويه": 9675,
      "تامين": 9676,
      "نرى": 9677,
      "مكياج": 9678,
      "سلمة": 9679,
      "المعهد": 9680,
      "يتطلب": 9681,
      "المقر": 9682,
      "صوتيات": 9683,
      "الاربعة": 9684,
      "##روسيا": 9685,
      "بتس": 9686,
      "##رجي": 9687,
      "وضعت": 9688,
      "كواشا": 9689,
      "##الته": 9690,
      "كروت": 9691,
      "السلوك": 9692,
      "بمث": 9693,
      "هندية": 9694,
      "الشامل": 9695,
      "مقات": 9696,
      "##جابة": 9697,
      "وتغ": 9698,
      "بيري": 9699,
      "##زت": 9700,
      "2004": 9701,
      "استفسارات": 9702,
      "##جنب": 9703,
      "##طلح": 9704,
      "##afe": 9705,
      "##اجلة": 9706,
      "المولد": 9707,
      "صب": 9708,
      "##فضل": 9709,
      "يشمل": 9710,
      "واضافت": 9711,
      "اضط": 9712,
      "##ظات": 9713,
      "سريع": 9714,
      "يطالب": 9715,
      "اكلات": 9716,
      "تلت": 9717,
      "موشر": 9718,
      "##رافيك": 9719,
      "حري": 9720,
      "سنغاف": 9721,
      "بتش": 9722,
      "لحل": 9723,
      "احتف": 9724,
      "الحوثي": 9725,
      "واعادة": 9726,
      "ساهم": 9727,
      "شو": 9728,
      "##ery": 9729,
      "##ايش": 9730,
      "ونا": 9731,
      "التهاب": 9732,
      "الامتحانات": 9733,
      "سبا": 9734,
      "حفظه": 9735,
      "شاملة": 9736,
      "وهما": 9737,
      "بانور": 9738,
      "ثانيا": 9739,
      "##وبه": 9740,
      "وسن": 9741,
      "سياحية": 9742,
      "امريكي": 9743,
      "السابعة": 9744,
      "العامه": 9745,
      "الاستمرار": 9746,
      "##ثلا": 9747,
      "نريد": 9748,
      "والاخت": 9749,
      "اردت": 9750,
      "البقاء": 9751,
      "طبيعيا": 9752,
      "##ريفة": 9753,
      "لاش": 9754,
      "##الص": 9755,
      "ونق": 9756,
      "مراد": 9757,
      "الماية": 9758,
      "##اناة": 9759,
      "الطرف": 9760,
      "##لفظ": 9761,
      "للكاتب": 9762,
      "دفاع": 9763,
      "##صارى": 9764,
      "الزوار": 9765,
      "المعارض": 9766,
      "الاكت": 9767,
      "جين": 9768,
      "وتاريخ": 9769,
      "الاصدقاء": 9770,
      "##ill": 9771,
      "الفلسفة": 9772,
      "##xx": 9773,
      "الانساني": 9774,
      "تصفح": 9775,
      "بعم": 9776,
      "غسل": 9777,
      "التطوير": 9778,
      "والشع": 9779,
      "زامبيا": 9780,
      "البنوك": 9781,
      "الموسيقى": 9782,
      "##شاريع": 9783,
      "##اضة": 9784,
      "عود": 9785,
      "الدماغ": 9786,
      "تنظم": 9787,
      "##وديوهات": 9788,
      "القراء": 9789,
      "الانباء": 9790,
      "شت": 9791,
      "الجماهير": 9792,
      "##26": 9793,
      "مطال": 9794,
      "الصعيد": 9795,
      "التعلم": 9796,
      "بيعه": 9797,
      "##ىء": 9798,
      "اصيب": 9799,
      "جير": 9800,
      "سامي": 9801,
      "التربوية": 9802,
      "الاكل": 9803,
      "بالفيديو": 9804,
      "تجار": 9805,
      "معك": 9806,
      "الصيام": 9807,
      "والتس": 9808,
      "القادر": 9809,
      "الشهير": 9810,
      "البصرة": 9811,
[...]
